{
  "version": "1.0",
  "truncation": null,
  "padding": null,
  "added_tokens": [
    {
      "id": 0,
      "special": true,
      "content": "[PAD]",
      "single_word": false,
      "lstrip": false,
      "rstrip": false,
      "normalized": false
    }
  ],
  "normalizer": null,
  "pre_tokenizer": {
    "type": "WhitespaceSplit"
  },
  "post_processor": null,
  "decoder": null,
  "model": {
    "type": "BPE",
    "dropout": null,
    "unk_token": null,
    "continuing_subword_prefix": null,
    "end_of_word_suffix": null,
    "fuse_unk": false,
    "vocab": {
      "[PAD]": 0,
      "!": 1,
      "\"": 2,
      "#": 3,
      "$": 4,
      "%": 5,
      "&": 6,
      "'": 7,
      "(": 8,
      ")": 9,
      "*": 10,
      "+": 11,
      ",": 12,
      "-": 13,
      ".": 14,
      "/": 15,
      "0": 16,
      "1": 17,
      "2": 18,
      "3": 19,
      "4": 20,
      "5": 21,
      "6": 22,
      "7": 23,
      "8": 24,
      "9": 25,
      ":": 26,
      ";": 27,
      "<": 28,
      "=": 29,
      ">": 30,
      "?": 31,
      "@": 32,
      "A": 33,
      "B": 34,
      "C": 35,
      "D": 36,
      "E": 37,
      "F": 38,
      "G": 39,
      "H": 40,
      "I": 41,
      "J": 42,
      "K": 43,
      "L": 44,
      "M": 45,
      "N": 46,
      "O": 47,
      "P": 48,
      "Q": 49,
      "R": 50,
      "S": 51,
      "T": 52,
      "U": 53,
      "V": 54,
      "W": 55,
      "X": 56,
      "Y": 57,
      "Z": 58,
      "[": 59,
      "\\": 60,
      "]": 61,
      "^": 62,
      "_": 63,
      "`": 64,
      "a": 65,
      "b": 66,
      "c": 67,
      "d": 68,
      "e": 69,
      "f": 70,
      "g": 71,
      "h": 72,
      "i": 73,
      "j": 74,
      "k": 75,
      "l": 76,
      "m": 77,
      "n": 78,
      "o": 79,
      "p": 80,
      "q": 81,
      "r": 82,
      "s": 83,
      "t": 84,
      "u": 85,
      "v": 86,
      "w": 87,
      "x": 88,
      "y": 89,
      "z": 90,
      "{": 91,
      "|": 92,
      "}": 93,
      "\"\"": 94,
      "!!": 95,
      "-*": 96,
      "!$": 97,
      ")-*": 98,
      "\"#": 99,
      "\"$": 100,
      "\"&": 101,
      "!*": 102,
      "!$)-*": 103,
      "\"#\"\"": 104,
      "\"1": 105,
      "\"&\"\"": 106,
      "*\"\"": 107,
      "$!*": 108,
      "$)-*": 109,
      "!$)-*(": 110,
      "!!!!": 111,
      "\"#\"\"\"$": 112,
      "!(": 113,
      "\"1\"\"": 114,
      "!-": 115,
      "A*": 116,
      "&*": 117,
      ",$": 118,
      "\"#\"\"\"\"": 119,
      "!#": 120,
      "(!$)-*": 121,
      ".$": 122,
      "\"&\"\"\"\"": 123,
      "\"+": 124,
      "(*": 125,
      "*\"\"#": 126,
      "\"9": 127,
      ")!$": 128,
      "!!(": 129,
      "1*": 130,
      "\"&\"\"\"\"\"&": 131,
      "\"&\"\"\"$": 132,
      "\"#\"\"\"\"\"#": 133,
      "!&": 134,
      "+#": 135,
      "+\"$": 136,
      "!$!*": 137,
      "\"1\"\"\"\"": 138,
      "!!#": 139,
      "!!$)-*": 140,
      "!!-": 141,
      "/$)-*": 142,
      ")!": 143,
      "-)!$": 144,
      "/$)-*$)-*": 145,
      "$A*": 146,
      "!!($": 147,
      "2*": 148,
      "-!*": 149,
      "\"1\"\"\"\"\"1": 150,
      "\"\"\"\"": 151,
      "!!$!*": 152,
      "\"#\"\"$": 153,
      "+&": 154,
      "\"&\"$": 155,
      "\"\"#": 156,
      ",#": 157,
      "\"1\"\"\"$": 158,
      "!!!(": 159,
      "!$A*": 160,
      "4!": 161,
      "$!": 162,
      "-!": 163,
      "\"#+": 164,
      ".#": 165,
      "!$A*$A*": 166,
      "!!!": 167,
      "\"\"$": 168,
      "!!$)-*(": 169,
      "A*\"\"": 170,
      "\"&\"\"\"\"\"&*": 171,
      "\"&*": 172,
      "\"$)-*": 173,
      "$-*": 174,
      "!\"#\"\"\"$": 175,
      "2*\"\"": 176,
      "\"&+": 177,
      "9*": 178,
      "!$)-*(.$": 179,
      ")-": 180,
      "*(": 181,
      ")!4": 182,
      "&*\"\"#": 183,
      "!-\"#\"\"\"$": 184,
      "!$)-*-*": 185,
      "\"#\"\"\"\"$": 186,
      "(!$)-*,$": 187,
      ")(": 188,
      ",&": 189,
      "\"&\"\"$": 190,
      ".&": 191,
      "\"$%": 192,
      "\"#*": 193,
      "\"#\"\"\"\"\"#*": 194,
      "!1": 195,
      "!$)-*-": 196,
      "!\"#": 197,
      "\"9\"\"\"\"": 198,
      "!!!$": 199,
      "-)": 200,
      "\":": 201,
      "!!$": 202,
      ",$-*": 203,
      "(&": 204,
      "!!&*": 205,
      "!$!*$!*": 206,
      "\"1\"$": 207,
      ".$-*": 208,
      "!-*": 209,
      ".$!*": 210,
      "4!)!4": 211,
      "\"\"\"$": 212,
      "\"1\"\"\"\"\"1*": 213,
      ",$!*": 214,
      "+\"$%": 215,
      "!$)": 216,
      "\"1*": 217,
      "\"&\"#": 218,
      "(#": 219,
      "!!&": 220,
      "\"'": 221,
      "$)-*B": 222,
      "#*": 223,
      "E$)-*B": 224,
      "!/": 225,
      "++": 226,
      "!(#": 227,
      "-)!$(": 228,
      "1*\"\"": 229,
      "\"$!*": 230,
      "!D": 231,
      "\"9\"\"\"\"\"9": 232,
      "(*)-*": 233,
      "!$A*$A*A*": 234,
      "\"\"&": 235,
      "!!!!!!!!": 236,
      "\"0": 237,
      "!-!$)-*": 238,
      "\"#&": 239,
      "!!*": 240,
      "!$!*!*": 241,
      "-)!$-*": 242,
      "!\"#\"\"": 243,
      "!($": 244,
      ",1": 245,
      "&*\"#": 246,
      "!(!$)-*": 247,
      ".1": 248,
      "\"$-*": 249,
      "!!1*": 250,
      "!,$": 251,
      "$%": 252,
      "!$)-*(#": 253,
      "\"$(": 254,
      "4!$": 255,
      "\"1+": 256,
      "+\"$(": 257,
      "\"$-!*": 258,
      "!&*": 259,
      "!($!*": 260,
      "4(": 261,
      "/$)-*$)-*(": 262,
      "!$!*)-*": 263,
      "!+#": 264,
      "2*\"\"#": 265,
      "!-\"#\"\"$": 266,
      "-!$)-*": 267,
      "!)": 268,
      "\"&\"\"\"\"$": 269,
      "A*\"\"#": 270,
      "!!$!*!*": 271,
      "+1": 272,
      "\"#\"\"\"&\"$": 273,
      "\"#\"\"\"$%": 274,
      "\"7": 275,
      "$!*!*": 276,
      "\"#\"\"&": 277,
      "+\"&": 278,
      "!$)(*": 279,
      "\"9\"\"\"$": 280,
      "&*!!#": 281,
      "!!6": 282,
      "\"&\"+": 283,
      "-)!#": 284,
      "!!(#": 285,
      "\"$2*": 286,
      "!!-!$)-*": 287,
      "!#)-": 288,
      "!\"#\"\"\"\"\"#*": 289,
      "!\"#\"\"$": 290,
      ")!5": 291,
      "\"\"1": 292,
      "!!$!*$!*": 293,
      "(!$)-*.$": 294,
      "\"#\"+": 295,
      "\"1\"\"$": 296,
      "!(&": 297,
      "\"&\"\"\"$2*\"\"": 298,
      "+\"#": 299,
      "!\"#\"\"\"\"\"#": 300,
      "3*": 301,
      "F$)-*": 302,
      "9*\"\"": 303,
      "!.$": 304,
      "($": 305,
      ">2": 306,
      "\"\"&*": 307,
      "!$)-*(&": 308,
      "!$!*$!*!*": 309,
      "-*\"\"#": 310,
      "!1*": 311,
      "-!!": 312,
      "B*": 313,
      "!!$)-*-*": 314,
      "!$A*$A*A*\"\"": 315,
      "*(#": 316,
      "!\"#+": 317,
      "!$(*)-*": 318,
      "!,#": 319,
      "!!($!$)-*": 320,
      "E$)-*B*": 321,
      "\"&1*": 322,
      "\"#-": 323,
      "(!$)-*(": 324,
      ":*": 325,
      "-,$": 326,
      "!!!!!#": 327,
      "\"\"$%": 328,
      "+\"+": 329,
      "!$)-*(,$": 330,
      "\"#\"\"\"&\"$\"#*": 331,
      "+$": 332,
      "8&": 333,
      "1*\"\"#": 334,
      "\"#\"$": 335,
      "\"&\"\"\"$A*\"\"": 336,
      "!$)(*(*": 337,
      "$)-*)-*": 338,
      "-!-": 339,
      "\"#\"\"\"$2*\"\"#": 340,
      ")!$(*": 341,
      "!\"&\"\"\"\"\"&*": 342,
      "!D(*": 343,
      "!$-*": 344,
      "\"9\"\"": 345,
      "6#": 346,
      "!!#*": 347,
      "(D": 348,
      "!!!!(*": 349,
      "\"&*\"\"#": 350,
      "\"$)-*0": 351,
      "!.#": 352,
      "!!&*\"\"#": 353,
      "\"&+\"$": 354,
      "+&*": 355,
      "!!1": 356,
      "\"#+\"$": 357,
      "*\"\"&": 358,
      "!!!(#": 359,
      "'#": 360,
      "7#": 361,
      "!$A*$A*A": 362,
      "!!,$": 363,
      "(/$)-*$)-*": 364,
      "!&)-*": 365,
      "\"&\"\"\"$%": 366,
      "+&*\"\"#": 367,
      "8#": 368,
      "\"+#": 369,
      "\"&#": 370,
      "\"$A*": 371,
      "+$!*": 372,
      "!!!(!$)(*(*": 373,
      "\"\"1*": 374,
      "\"#\"\"\"\"&": 375,
      "\"&0": 376,
      "\"#)-": 377,
      "(1": 378,
      "!!!#": 379,
      "!!($!": 380,
      "!!(!$)-*": 381,
      "!$)/": 382,
      "\"9\"\"\"\"\"9*": 383,
      "\"#&*": 384,
      "+\"1": 385,
      "\"9*": 386,
      "F$)-*$-*": 387,
      "$!*!": 388,
      ")!$!*": 389,
      "$!!": 390,
      ".9": 391,
      "-.$": 392,
      "\"1\"\"\"\"$": 393,
      "!\"#\"\"\"\"$": 394,
      "$B*": 395,
      ">-)!$-*": 396,
      "3*\"\"": 397,
      "\"&\"\"\"1\"$": 398,
      "\"#%": 399,
      "\"&\"\"\"\"\"&*\"\"#": 400,
      "\"&\"\"\"\"\"&#": 401,
      ")(4": 402,
      "!9": 403,
      "\"$(*": 404,
      "!!+#": 405,
      "!!!$)-*-*": 406,
      "\"&\"\"1": 407,
      "!!$)-*-": 408,
      "!-\"#\"\"\"\"\"#": 409,
      ")!&": 410,
      "+$%": 411,
      "!-\"#\"\"\"\"$": 412,
      "!!!&": 413,
      ")!#": 414,
      "-!$!*)-*": 415,
      "+1*": 416,
      "!-\"#\"\"\"$%": 417,
      "\"#\"\"\"$A*\"\"#": 418,
      "\"1\"\"\"$2*\"\"": 419,
      "/$!*": 420,
      "\"&)-*": 421,
      "$!*!!": 422,
      ",9": 423,
      "*\"\"$": 424,
      "+#*": 425,
      "\"1\"\"\"$A*\"\"": 426,
      "\"9\"$": 427,
      "!$(*": 428,
      "\"1\"+": 429,
      "\"&\"\"\"$-*": 430,
      "!!/": 431,
      "\":\"\"\"\"": 432,
      "-!*\"$-!*": 433,
      "!!$-*": 434,
      ")!$5": 435,
      "(\"#+": 436,
      "\"#\"\"\"$-": 437,
      "\"&+#": 438,
      "/*": 439,
      "!!!$)-*(": 440,
      "\"&\"\"\"1\"$\"&*": 441,
      "!!!!#": 442,
      "!\"#\"\"\"$%": 443,
      "+\"\"": 444,
      ")(5": 445,
      "\"#\"\"\"$(": 446,
      "!*\"\"#": 447,
      "!!9*": 448,
      "!\"#\"+": 449,
      "!!!-": 450,
      "\"&\"\"\"$2*\"\"&*": 451,
      "\"#-!": 452,
      "!!(&": 453,
      "\"&\"\"\"+": 454,
      "1!!!!": 455,
      "!($!": 456,
      "6&": 457,
      "!D(": 458,
      "!\"#\"0": 459,
      "!!($!!*": 460,
      "\";": 461,
      "!$)/*(": 462,
      "4()!4": 463,
      "*\"\"&*": 464,
      "($!*": 465,
      "!-\"#\"\"&": 466,
      "!&*\"\"#": 467,
      "/$!*$)-*)-*": 468,
      "!&!!!!": 469,
      "-#": 470,
      "!,&": 471,
      "\"&+\"$%": 472,
      "!$)-*($": 473,
      "!+&": 474,
      "!!$(*)-*": 475,
      "!.&": 476,
      "-!$": 477,
      "\"#\"\"$%": 478,
      "2*\"$2*": 479,
      "!!$)-*(#": 480,
      "81": 481,
      "\"&\"\"$%": 482,
      "-*\"\"#*": 483,
      "+$!": 484,
      "-,$!-*": 485,
      "4!)!5": 486,
      "\"&\"\"\"\"\"#&*": 487,
      "1*\"\"&": 488,
      "!!$!": 489,
      "!#*": 490,
      "\"\"$!*": 491,
      ">-)!$-*!$A*$A*A": 492,
      ".#-": 493,
      "\"&*\"#": 494,
      "++#": 495,
      "!!!($": 496,
      "\"$!$)-*(": 497,
      "!!!(&": 498,
      "!)!": 499,
      "!,$-*": 500,
      ".$-*,$-*": 501,
      "\"&\"\"\"$A*\"\"&*": 502,
      "\"+&": 503,
      "\"$!*\"#": 504,
      "!$!*!": 505,
      "\"&+\"+": 506,
      "\"&\"\"\"\"\"#&": 507,
      "!!#$!*": 508,
      "!/$)-*$)-*": 509,
      "!-\"#\"\"": 510,
      "+\"$!*": 511,
      "+9": 512,
      "!$)-*-!": 513,
      "\"&\"\"#": 514,
      "!!!$(*)-*": 515,
      "\":\"\"\"\"\":": 516,
      "!$)-*(.$!!$!*!*": 517,
      "\"19*": 518,
      "!$)-*,$": 519,
      "\"1\"\"\"\"\"&1*": 520,
      "!!($!*": 521,
      "!.$-*": 522,
      ",#-": 523,
      "!!$)-*(.$": 524,
      "\"+\"#": 525,
      "\"&\"0": 526,
      "$(*": 527,
      "!\"&\"\"\"$": 528,
      "-*\"\"": 529,
      "\"&\"\"\"\"1": 530,
      "\"'#": 531,
      "+\"\"#": 532,
      "+7": 533,
      "-!!-": 534,
      "/$)-*$)-*(&": 535,
      "\"1\"\"\"$A*\"\"1*": 536,
      "D(*": 537,
      "()!$(*": 538,
      "!$)-*(.$!!!!(*": 539,
      "()!$": 540,
      "!!-!!&*": 541,
      "\"&'": 542,
      "!\"#\"\"$!*": 543,
      "\"9\"\"$": 544,
      ".$-": 545,
      "\"$-": 546,
      "\"#+\"$%": 547,
      "!!!,#": 548,
      "!$)-*-!*": 549,
      "\"10": 550,
      "2*\"#": 551,
      "\"$\"\"#": 552,
      "!!!!$)-*": 553,
      ">H": 554,
      "+\"&\"#": 555,
      "4!$)!5": 556,
      "\"\"\"+": 557,
      "-)/$)-*": 558,
      "!!,$!*": 559,
      "!($!$)-*": 560,
      "*\"\"\"#": 561,
      "!$)-*(.$!!!(!$)(*(*": 562,
      "3*\"\"#": 563,
      "\"1\"\"\"+": 564,
      "!$)-*(!": 565,
      "\"1\"\"\"$2*\"\"1*": 566,
      "(!$)-*!(!$)-*": 567,
      "\"&\"\"\"$!*": 568,
      "-)\"#": 569,
      "1*\"\"&*": 570,
      ".:": 571,
      "($!*!*": 572,
      "+\"$(*": 573,
      "\"&\"\"\"$-": 574,
      "1!!-": 575,
      "(!": 576,
      "!!.$": 577,
      "!!!!!": 578,
      "!#!!!!!#": 579,
      "$!*$": 580,
      "!\"#\"\"\"$-*\"\"#*": 581,
      "!!-\"#\"\"\"$": 582,
      "+0": 583,
      ".$!*-*": 584,
      "\"\"\"\"&": 585,
      "(!$)-*,$!!$!*!*": 586,
      "!!-!!#": 587,
      "\"&7": 588,
      "6#&": 589,
      "(!$)-*.#": 590,
      "1!*": 591,
      "!!-*": 592,
      "!$(*)-": 593,
      "!!6&": 594,
      "!\"#\"0\"&\"\"\"\"\"#&*": 595,
      "!!,&": 596,
      "!$)-*(.$!*": 597,
      "\"&\"\"\"$2*\"\"&": 598,
      ")!$(*(*": 599,
      "!\"#\"$": 600,
      "9$!*": 601,
      "4!)!": 602,
      "/!!$)-*(": 603,
      "!1)-*": 604,
      "!&)-": 605,
      "!$A*$A*A*\"\"#": 606,
      "4!$)!4": 607,
      "*\"\"1*": 608,
      "!)!$": 609,
      "$-": 610,
      "\"&*!!#": 611,
      "!(#!$)-*": 612,
      "!)!#": 613,
      "$!$A*$A*A*": 614,
      "!$)-*(.$!\"#\"\"\"\"\"#*": 615,
      "4!$)(5": 616,
      "!!&*\"#": 617,
      "\"\"\"1": 618,
      "\"1\"\"\"$%": 619,
      "\"\"\"\"#": 620,
      "2*\"$": 621,
      "\"\"&*\"\"#": 622,
      "!(#!!($": 623,
      "\"&+\"$(": 624,
      "\"&+\"1\"\"\"\"\"1": 625,
      "\"#\"\"\"\"$%": 626,
      "\"&\"\"$2*\"\"": 627,
      "!!!1": 628,
      "\"&\"$!*": 629,
      "!!!()!$(*(*": 630,
      "-!*\"#-!": 631,
      "=#": 632,
      "(!#": 633,
      "(!$)-*.$(*": 634,
      "\"\"9": 635,
      "61": 636,
      "!$)-*($!*": 637,
      "\"&\"\"\"\"$2*": 638,
      "\"&1*\"\"#": 639,
      "($!": 640,
      "\"&\"\"+": 641,
      "!&)(": 642,
      "!!9": 643,
      "E$)-*B*\"\"#": 644,
      "!&$": 645,
      "E$B*": 646,
      "!!!$!*": 647,
      "\"1\"\"9": 648,
      "!.1": 649,
      "\"&\"\"\"7": 650,
      "!!-!!-": 651,
      "2>": 652,
      "9*\"\"1*": 653,
      "!!!!&": 654,
      "4!)!$5": 655,
      "\"#'": 656,
      "!,1": 657,
      "!(1": 658,
      "$2*": 659,
      "4!)(4": 660,
      "(!$)-*,$!*": 661,
      "+#%": 662,
      "!&)-*\"\"#": 663,
      "\"&\"\"\"'": 664,
      "(!$)-*-": 665,
      "$A*$A*": 666,
      "-)/$)-*$": 667,
      "!/\"#+": 668,
      "(9": 669,
      "+&\"+": 670,
      "8&$!*": 671,
      "/$(*": 672,
      "\"1\"\"\"9\"$": 673,
      "!#$": 674,
      "\"&\"\"\"$-*\"\"&*": 675,
      "!\"&\"\"\"\"\"&": 676,
      "!#!!($": 677,
      "&*!#": 678,
      "-)E$B*": 679,
      "\"&+\"\"": 680,
      "\"&\"$\"#*": 681,
      "\"$(!$)-*": 682,
      "4!$!*": 683,
      "F$)-*$-*-": 684,
      "\"#\"\"\"$(!$)-*": 685,
      "\"&%": 686,
      "!!!!!&*": 687,
      "!#)": 688,
      "(#!!($": 689,
      "!#)!$": 690,
      "!$)(*(": 691,
      "\"#\"$!*": 692,
      "/$(*$)-*)-*": 693,
      "!!,#": 694,
      "+&*\"#": 695,
      "!!61": 696,
      "++&": 697,
      "\"1\"\"\"$-*": 698,
      "\"&\"\"\"$-!*": 699,
      "\"#\"\"\"$(&": 700,
      "\":\"\"\"$": 701,
      "\"\"$-*": 702,
      "!$)-*(#!!!,#": 703,
      "\"&\"$%": 704,
      "!!!(!$)-*": 705,
      "\"7#": 706,
      "!1!!!!": 707,
      "\"#!": 708,
      "!!!!!!!!!!!!": 709,
      "$!-*": 710,
      "(!$!*)-*": 711,
      "\"#\"0": 712,
      ",$-": 713,
      "\"$-!*\"#": 714,
      "\"&\"'": 715,
      "\"\"\"&": 716,
      "\"9\"+": 717,
      "!#)-*": 718,
      "\"$!$)-*-*": 719,
      "!!.#": 720,
      "\"+#*": 721,
      "\"&\"\"\"\"\"&*!!#": 722,
      "\"#+\"$(": 723,
      "\"1\"\"\"$!*": 724,
      "!.$!*": 725,
      ",&-*": 726,
      "!\"1\"\"\"\"\"1*": 727,
      "\"1\"&": 728,
      "4!)!&": 729,
      "E$)-*B*\"\"": 730,
      "!!!+#": 731,
      "+\"#&": 732,
      ")/*": 733,
      "-&*": 734,
      ":*\"\"": 735,
      "'&*": 736,
      ")(4(": 737,
      "\"#\"$-*": 738,
      "!!1*\"\"": 739,
      "(!#)-": 740,
      "$!$)-*(": 741,
      "!!/$)-*$)-*": 742,
      "\"#\"\"\"$3*\"\"#": 743,
      "!!\"#+": 744,
      "!$)-*.$": 745,
      "(!$)-*,$!!!!(*": 746,
      "\"&\"\"\"\"\"&\"#": 747,
      "1!!-!!1*": 748,
      "(!$)-*,$!!!(!$)(*(*": 749,
      "0#": 750,
      "\"&++\"$": 751,
      "\"&\"\"\"\"\"&*\"#": 752,
      "\"1\"\"\"9\"$\"1*": 753,
      "\"1\"\"+": 754,
      "!\"#\"\"&": 755,
      "!&!!&*": 756,
      "!$)-*-*\"\"#": 757,
      "%&": 758,
      "$!D(*": 759,
      "0\"$)-*": 760,
      "\"1\"\"\"$-": 761,
      "!#&": 762,
      "(!$)-*,$!-*": 763,
      "!9*": 764,
      "'#*": 765,
      "\"#\"\"\"+\"#": 766,
      "!!\"#\"\"\"$": 767,
      "!&)!$": 768,
      "(!$": 769,
      "!$)-*(1": 770,
      "A*\"$A*": 771,
      ".&-": 772,
      "!!!!-": 773,
      "\"1\"\"\"\"\"1*\"\"": 774,
      "!!,$!*,$": 775,
      "89": 776,
      ",:": 777,
      "!$)-*!$": 778,
      "!!!!(": 779,
      "-,$!-*.$-*,$-*": 780,
      "!!-!!": 781,
      "!!$!*!,$": 782,
      "\"&\"$)-*": 783,
      "!$)-*(!!": 784,
      "\"\"\"#": 785,
      "+&\"\"": 786,
      ";*": 787,
      "\"&\"\"\"1\"\"\"\"\"1": 788,
      "\"1*\"\"": 789,
      "!!$)-*(&": 790,
      "\"1\"\"\"7": 791,
      "(&!!($": 792,
      "!$)-*(.$!-*": 793,
      "E$!*": 794,
      "!)!$!*": 795,
      "\"#\"\"$2*\"\"": 796,
      "(!$)-*,$!": 797,
      "\"&\"\"\"$(": 798,
      "!$!*)-": 799,
      "\"1\"\"$2*\"\"": 800,
      "-&": 801,
      "$-*$": 802,
      "!$)-*4!)!4": 803,
      "\"1+\"+": 804,
      "!!!!$": 805,
      "\"&\"\"$!*": 806,
      "(!$)-*,$!\"#\"\"\"\"\"#*": 807,
      "+7#": 808,
      "4!#": 809,
      "!$)-*(!$": 810,
      "\"#\"\"\"$2*\"\"#*": 811,
      "-*\"$-*": 812,
      "/!": 813,
      "\"#\"\"+\"\"#": 814,
      "\"&\"\"$-*": 815,
      "\"1\"\"\"\"9": 816,
      "F$)-*$-*-*": 817,
      "!-\"#\"\"\"&\"$\"#*": 818,
      "\"$)-*+&": 819,
      "8#&": 820,
      "\"&*+#": 821,
      "\"9+": 822,
      "!$)-*($!": 823,
      "!&!!!!!&*": 824,
      "8#$!*": 825,
      "!\"#\"\"\"\"": 826,
      "\"17": 827,
      "\"&)-*\"\"#": 828,
      "-)!#(": 829,
      "\"&\"\"\"$A*\"\"&": 830,
      "!#!!#": 831,
      "(!$)-*!$": 832,
      "!$)-*(.$!!!$)-*-*": 833,
      "-!*\"$-!*\"$-!*": 834,
      "+\"\"&": 835,
      "\"#\"\"\"$E$)-*B*\"\"#": 836,
      "\"'1*": 837,
      "!\"#+\"$": 838,
      "\"#+\"\"": 839,
      "!!(#!$)-*": 840,
      "$!*$-*": 841,
      "-!*\"\"#": 842,
      "F$)-*$": 843,
      "(!$)-*-!": 844,
      "!!\"#\"\"\"\"\"#": 845,
      "\"#+\"&\"\"\"\"\"&": 846,
      "\"1&*": 847,
      "\"&\"$-*": 848,
      "\"&\"\"\"\"$A*": 849,
      "!(*": 850,
      "4()!$5": 851,
      "/#": 852,
      "\"#*(": 853,
      "\"\"\"\"1": 854,
      "!$!*$!*!": 855,
      "(\"#+\"$": 856,
      "\"$3*": 857,
      "$)-*)-": 858,
      "-)!$4!)!4": 859,
      ")!$4": 860,
      "\"1\"\"\"\"$2*": 861,
      "*\"\"\"#-": 862,
      "\"9\"\"\"$A*\"\"": 863,
      "\"$E$)-*B*": 864,
      "\"$%\"&\"\"\"\"\"&*": 865,
      ")!#5": 866,
      "!!$!*$!*-": 867,
      ")!!$)-*": 868,
      ">?": 869,
      "!!!!(#": 870,
      "4!)!$5!*": 871,
      "\"+&*": 872,
      "!!$!!$!": 873,
      "-!#": 874,
      "!!$)-*($": 875,
      "!!!!!#*": 876,
      "(.$": 877,
      "\"$2*\"#": 878,
      "\"&\"\"1\"$": 879,
      "\"1\"\"\"\"+1*": 880,
      "-!-1*": 881,
      "9*!!1*": 882,
      "\"1\"\"\"71*": 883,
      "6#$!*": 884,
      "\"&\"\"\"$(1": 885,
      "4!)!&5": 886,
      "8:": 887,
      "'&*\"\"#": 888,
      "8$!*$": 889,
      "\"&\"0\"1\"\"\"\"\"&1*": 890,
      "*\"\"$-!*\"#-!": 891,
      "\"#\"\"\"\"\"#*\"#\"\"\"\"\"#": 892,
      "!\"#\"\"\"$(!$)-*": 893,
      "\"&\"\"\"\"\"&%": 894,
      "\"#\"\"\"\"$2*\"#": 895,
      "!!!&$": 896,
      "-,#": 897,
      "!!,1": 898,
      "*(#!!($": 899,
      "!!!9": 900,
      "\"&\"\"\"+\"&*": 901,
      "!-\"#\"\"&\"$\"\"#": 902,
      "+&*!!#": 903,
      "@*": 904,
      "\"$)-*7": 905,
      "!!!!!!": 906,
      "!#)(": 907,
      "(\"#\"\"\"$": 908,
      "\"+\"&": 909,
      "!!!!!!!!!!!!!!!!": 910,
      "'1*": 911,
      "=&": 912,
      "!!61$!*": 913,
      "!&!!($": 914,
      "%\"#\"\"\"\"\"#": 915,
      "\"&\"\"\"7&*": 916,
      "\"9\"\"\"\"\"19*": 917,
      "\"#0": 918,
      "#!": 919,
      "!:": 920,
      "!\"#\"\"\"&\"$\"#*": 921,
      "\"#\"\"\"\"&\"\"\"\"": 922,
      "!$A*$A*A*\"#": 923,
      "!!!!&*": 924,
      "!!6#": 925,
      "!\"1\"\"\"\"\"1": 926,
      "\"&\"\"\"$3*\"\"": 927,
      "\"&\"\"\"$(!$)-*": 928,
      "\"&\"\"\"\"$!$A*$A*A*": 929,
      "!$)-*(.$!!$)-*-*": 930,
      "\"90": 931,
      "\"&\"\"\"\"\"&2*": 932,
      "!$)-*(.$!!!$(*)-*": 933,
      "!($!*!$)-*": 934,
      "(&!$)-*": 935,
      "($!$)-*": 936,
      "!1!!1*": 937,
      "\"#\"\"\"\"$A*": 938,
      "+#\"+": 939,
      "(!$)-*.#!!!(#": 940,
      "\"&\"\"\"'&*": 941,
      "\"9\"\"\"$2*\"\"": 942,
      "7&*\"\"#": 943,
      ".;": 944,
      "\"&\"\"\"\"+&*": 945,
      "\"1\"\"\"$-!*": 946,
      "!$)-*(!!$)-*(.$": 947,
      "$!!*": 948,
      "-!,#": 949,
      "!!($!*!*": 950,
      "-!-&": 951,
      "\"1++": 952,
      "!!(1": 953,
      "\"&!*": 954,
      "(!$)-*.&": 955,
      "6&$!*": 956,
      "!//": 957,
      "\"#\"\"\"'#": 958,
      "!!!$-*": 959,
      "!+#\"\"$": 960,
      "\"&\"\"$A*\"\"": 961,
      "\"#\"\"\"$A*\"\"#*": 962,
      "\"&\"\"\"$!$A*$A*A*\"\"": 963,
      "1*\"#": 964,
      "\"&\"\"\"\"$%": 965,
      "\"1\"$!*": 966,
      "/$)-*$)-*-*": 967,
      "\"&+7": 968,
      "+&\"$": 969,
      "!!!,$": 970,
      "!)-*": 971,
      "!\"#\"\"\"$-": 972,
      "!+#\"$)-*": 973,
      "!!#)!$": 974,
      "!$)-*(,#": 975,
      "(!$)-*,$!!$)-*-*": 976,
      "\"#\"\"\"&0": 977,
      "\"$)-*0\"#)-": 978,
      "\"1\"\"\"+\"1*": 979,
      "(!!": 980,
      ".$-!$)-*": 981,
      "!$)-*(.$!!$(*)-*": 982,
      "-.1": 983,
      "+\"&#": 984,
      ".$(*": 985,
      "+\"9": 986,
      "\"#\"'": 987,
      "\"1+\"$": 988,
      "\"$!D(*": 989,
      "'\"#": 990,
      "!&*\"#": 991,
      "\"$A*\"#": 992,
      "\"&\"\"\"$/$)-*$)-*(": 993,
      "\"1\"\"\"$2*\"\"1": 994,
      "-\"#\"\"\"$": 995,
      "9*\"\"1": 996,
      "(!$)-*,$!!!$)-*-*": 997,
      "\"#\"\"\"7#": 998,
      ".$!-*": 999,
      "!\"#\"\"\"$2*\"\"#": 1000,
      "-.&": 1001,
      "$!$)-*-*": 1002,
      "!!.&": 1003,
      ",$-*,$-*": 1004,
      "(!$)-*,$!!!$(*)-*": 1005,
      "\"1'": 1006,
      "!!-!!9*": 1007,
      "!!8&": 1008,
      "\"'#*": 1009,
      "!6#&": 1010,
      "\"+1*": 1011,
      "\"#\"\"\"\"+#": 1012,
      ".$!*!!*": 1013,
      "!-\"#\"\"$%": 1014,
      "!$)-*\"#\"\"\"\"\"#": 1015,
      "\"&\"\"\"\"\"&+#": 1016,
      "\"1)-*": 1017,
      "\"#+\"+&": 1018,
      "\":\"$": 1019,
      "!!.9": 1020,
      "-,&": 1021,
      "!+#\"+": 1022,
      "\"&\"\"\"\"\"&A*": 1023,
      "!\"#\"\"$%": 1024,
      "!!-!$)-*!#": 1025,
      "\"$)-*+#": 1026,
      "+9*": 1027,
      "\"#++\"$": 1028,
      "\"\"$-!*": 1029,
      "(!$)/*(": 1030,
      "!!!$)-*": 1031,
      "81$!*": 1032,
      "!-\"#\"\"\"$(!$)-*": 1033,
      "-.#": 1034,
      "!!#$": 1035,
      "!!69": 1036,
      "\"1+\"\"": 1037,
      "!6": 1038,
      "\"1\"\"+\"\"1*": 1039,
      "!$\"&\"\"\"\"\"&*": 1040,
      "\"&\"\"\"\"1\"\"\"\"": 1041,
      "!!!!#*": 1042,
      "\"&\"\"\"$E$)-*B": 1043,
      "!-\"#\"\"$-!*": 1044,
      "\"1\"\"\"'1*": 1045,
      "\"1\"\"9\"$": 1046,
      "\"&+++": 1047,
      "!\"#+7": 1048,
      ")E": 1049,
      "\"&\"\"\"$!$)-*(": 1050,
      "\"&\"\"\"\"$2*\"&*": 1051,
      "-,$!-": 1052,
      "\"$(1": 1053,
      ">H>H": 1054,
      "\"&\"\"+\"\"&*": 1055,
      "\"#\"\"\"\"\"#%": 1056,
      "\"#\"\"\"\"&\"#": 1057,
      "\"&\"\"\"\"\"&*+#": 1058,
      "!!.1": 1059,
      "$!1": 1060,
      "7&*": 1061,
      "!!$!*)": 1062,
      "\":\"\"\"\"\":*": 1063,
      "'\"&\"#": 1064,
      "\"$!$)-*": 1065,
      "!!(#!!($": 1066,
      "!$)/*": 1067,
      "4!)!4!$)-*": 1068,
      "\"&+\"1\"$": 1069,
      "\"$)-*+$!*": 1070,
      "!$)-*(\"#\"\"\"$": 1071,
      "\"#\"$%": 1072,
      "2*\"\"&": 1073,
      "$!D": 1074,
      "\":*": 1075,
      "()!$(*(": 1076,
      "(!$)-*!(!$)-*,$": 1077,
      "\"#)-*": 1078,
      "4!$)(4": 1079,
      "(*+\"+": 1080,
      "\"&\"\"\"1\"$\"&*-!-1*": 1081,
      ",$-!$!*)-*": 1082,
      "-,$!-*.$-*": 1083,
      "!!69$!*": 1084,
      "\"#\"\"\"\"\"#*(": 1085,
      "\"$-*\"#": 1086,
      ",$-*.$-*": 1087,
      "$)-*7": 1088,
      "\"&\"$A*\"\"": 1089,
      "!(&!!($": 1090,
      "\"&\"\"$(!$)-*": 1091,
      "\"#\"\"\"$-*\"\"#": 1092,
      "4!)(4(": 1093,
      "!!!($!": 1094,
      "\"1\"\"\"\"\"1&*": 1095,
      "\"&+\"\"\"\"&": 1096,
      ".$!-": 1097,
      "!!!!*": 1098,
      "\"$(&": 1099,
      "!!-!!#*": 1100,
      "!!-!!&*\"\"#": 1101,
      "*\"\"1": 1102,
      "\"&\"$2*\"\"": 1103,
      "\"&\"1\"$": 1104,
      ">I": 1105,
      "!!$A*$A*": 1106,
      "\"<": 1107,
      "\"1\"\"$%": 1108,
      "!\"#\"\"\"$A*\"\"#": 1109,
      "\":\"\"": 1110,
      "\"$/": 1111,
      "1*\"\"&*\"\"#": 1112,
      "(!$)-*-!$!*$!*!*": 1113,
      "\"&+\"$!*": 1114,
      ".$-!$!*)-*": 1115,
      "\"&\"\"\"$%\"1\"\"\"\"\"1": 1116,
      "!!!($!$)-*": 1117,
      "\"&\"#*": 1118,
      "*\"\"#*": 1119,
      "/$)-*$)-*(#": 1120,
      "\"&\"\"#-!": 1121,
      "\"&\"\"1\"\"\"\"": 1122,
      "!,$(*": 1123,
      "$!*\"#": 1124,
      "\"&++\"$%": 1125,
      "!4!)!5": 1126,
      "\"#\"\"$!*": 1127,
      "\"\"$!$)-*(": 1128,
      "\"$!$A*$A*A*": 1129,
      "(!$)-*,$!!$(*)-*": 1130,
      "!*\"\"": 1131,
      "\"1*\"\"&": 1132,
      "!!!!,$": 1133,
      "=$": 1134,
      "\"#\"\"\"+": 1135,
      "\"1\"\"\"$3*\"\"": 1136,
      "4!$!*)!4": 1137,
      "!!D": 1138,
      "!(#!!!$": 1139,
      "\"1\"\"\"$!$A*$A*A*\"\"": 1140,
      "!!($!*!!": 1141,
      "/*(": 1142,
      "A*\"\"&": 1143,
      "!+#\"\"": 1144,
      "-!1": 1145,
      ")!$!*!*": 1146,
      "-1*": 1147,
      "!\"#\"\"\"\"$%": 1148,
      "\"#\"\"\"$!$)-*(": 1149,
      "!!!.#": 1150,
      "$\"&\"\"\"\"\"&*": 1151,
      "(#!$)-*": 1152,
      "\"&A*": 1153,
      "\"1+\"9\"\"\"\"\"9": 1154,
      "!$!$)-*(": 1155,
      "\"1\"\"\"\"\"&1*\"\"#": 1156,
      "!1*\"\"": 1157,
      "\"1\"\"$-*": 1158,
      "\"\"\"9": 1159,
      "!-\"#\"\"\"\"$%": 1160,
      "+1\"+": 1161,
      "\"1\"\"\"\"\"1&*\"\"#": 1162,
      "!$)-*(.$!\"#\"0\"&\"\"\"\"\"#&*": 1163,
      "!(9": 1164,
      "!!(*": 1165,
      "!!$!*-": 1166,
      "!!$!*,$": 1167,
      "\"0#*": 1168,
      "\"\"&#": 1169,
      "\"1\"\"$!*": 1170,
      "+&%": 1171,
      "\"1\"&*": 1172,
      "-!-9*": 1173,
      "1!!!!!1*": 1174,
      ",$-!$)-*": 1175,
      "-!&": 1176,
      "!(/$)-*$)-*": 1177,
      "!!&*!!#": 1178,
      "!$)-*(#!!($": 1179,
      "!$)-*(#!!!$": 1180,
      ">2>2": 1181,
      "!!!!(!$)-*": 1182,
      "!$A*A*": 1183,
      "!\"#\"\"\"$!$)-*(": 1184,
      "\"#\"\"\"$2*\"$2*": 1185,
      "+&\"+\"1\"$": 1186,
      "\"9\"\"\"\"\"91*": 1187,
      ",1-*": 1188,
      "!-\"#\"\"\"&\"$": 1189,
      "\"1\"\"\"\"$A*": 1190,
      "!!&$": 1191,
      "$!!!*": 1192,
      "-!$!*$!*": 1193,
      "(!$)-*!/": 1194,
      "!-\"#\"\"\"$!&": 1195,
      "\"\"#*": 1196,
      "\"1\"\"\"$A*\"\"1": 1197,
      "+&+\"$": 1198,
      "!!!!9*": 1199,
      ",;": 1200,
      "\"#\"\"&\"\"\"\"": 1201,
      "-!!$-*": 1202,
      "!!1*\"\"&": 1203,
      "!!!1*": 1204,
      "\"$)-*+$": 1205,
      "!\"#\"\"\"$/$)-*$)-*(": 1206,
      "\"&\"\"\"$2*\"$2*": 1207,
      "\"1\"0": 1208,
      ">X": 1209,
      "-!*\"#": 1210,
      "!,$!*": 1211,
      "(*\"\"": 1212,
      "!$)-*-!$!*$!*!*": 1213,
      "\"&\"\"1\"$\"\"&": 1214,
      "++&*": 1215,
      "\"$%\"1\"\"\"\"\"1*": 1216,
      "!D!": 1217,
      "\"&\"\"$-": 1218,
      "!!$)-*(\"#\"\"\"$": 1219,
      ".$!*-": 1220,
      "\"1!*": 1221,
      "!$)-*(.$!!!()!$(*(*": 1222,
      "1!!!!1*": 1223,
      "\"7#*": 1224,
      "!4!$)(5": 1225,
      "!$)-*(.$!": 1226,
      "\"&\"\"$!$)-*(": 1227,
      "\"#\"\"\"$!$A*$A*A*\"\"#": 1228,
      "!\"#\"\"\"$(": 1229,
      "(!$)-*!#": 1230,
      "+&\"\"$": 1231,
      "A!$A*$A*": 1232,
      "\"&2*": 1233,
      "0\"$": 1234,
      "\"&+\"\"$": 1235,
      "]$B*": 1236,
      ")!1": 1237,
      "!!!(1": 1238,
      "!!)": 1239,
      "!-\"#\"\"&\"$\"\"#-!*": 1240,
      "\"1\"\"\"$!$)-*(": 1241,
      "+#&": 1242,
      "!!!$)-*-": 1243,
      "+\"&+#": 1244,
      ".#!": 1245,
      "!!!!$!*": 1246,
      "\"#\"\"\"$-!": 1247,
      "\"#\"\"\"$!*\"\"#": 1248,
      "!\"#7": 1249,
      "!!.$!*": 1250,
      "\"#\"\"&\"$\"\"#": 1251,
      "1*!!#": 1252,
      "\"1\"\"9\"$\"\"1": 1253,
      ".#&": 1254,
      "+1\"\"": 1255,
      "(&!!-!!&*": 1256,
      "\"&0#": 1257,
      "\"1+\"$%": 1258,
      "!-,#": 1259,
      "\"$!": 1260,
      "!\"#\"\"\"\"\"#*(": 1261,
      "!&)": 1262,
      "!4!$)!5": 1263,
      "!(&!$)-*": 1264,
      "\"1\"\"\"$!*\"\"1*": 1265,
      "\"&\"\"\"$!*\"\"&*": 1266,
      "+\"&*": 1267,
      "\"1\"\"\"$-*\"\"1*": 1268,
      "!$A*$A*A*\"\"$!$A*$A*A*": 1269,
      "!-\"#\"\"\"$-!*": 1270,
      "3*\"\"&": 1271,
      "+\"#%": 1272,
      "+\"&%": 1273,
      ",$!*.$-": 1274,
      "!!(9": 1275,
      "-!,#-.$": 1276,
      "!\"#\"+\"0#*": 1277,
      "!\"#\"0\"+#*": 1278,
      "!!\"&\"$": 1279,
      "!!6&$!*": 1280,
      "\"#\"+$": 1281,
      "\"1\"\"\"\"$2*\"1*": 1282,
      "!,$(!$)-*": 1283,
      "!!!(*": 1284,
      "\"1&*\"\"#": 1285,
      "+\"\"1": 1286,
      "!,#!($": 1287,
      "!!-!!1*": 1288,
      "8&$": 1289,
      "!!!&$!!#*": 1290,
      "\"&\"\"\"$3*\"\"&*": 1291,
      "-!*\"\"": 1292,
      "!!!(#!$)-*": 1293,
      "!1!!!!!1*": 1294,
      "\"1\"\"\"$(9": 1295,
      "!!8&$!*": 1296,
      "++1*": 1297,
      "4!)!4!": 1298,
      "\"&!#": 1299,
      "!!-\"#\"\"$": 1300,
      "!/*": 1301,
      "\";\"\"\"\"": 1302,
      ">-)!$-*!$)-*-": 1303,
      "(!$)-*!": 1304,
      "\"9\"\"\"+": 1305,
      "-*\"$": 1306,
      "\"1\"\"\"\"\"1*!!&*": 1307,
      "!!-\"#\"\"\"\"\"#": 1308,
      "\"&\"\"\"$2*\"\"&2*": 1309,
      "\"#+\"+": 1310,
      "!!!*": 1311,
      "7\"&\"#": 1312,
      "!$)-*(.$!\"#\"\"\"$-*\"\"#*": 1313,
      ",$!-*": 1314,
      "71*": 1315,
      "4!)!4!$)-*(": 1316,
      "\"#+\"&\"$": 1317,
      "!-.#": 1318,
      "!-\"#\"\"\"$(": 1319,
      "*\"\"#&": 1320,
      "\"&\"\"$/$)-*$)-*(": 1321,
      "\"\"#&": 1322,
      "!!!/": 1323,
      "!-\"#\"\"\"$!$)-*(": 1324,
      "(\"#+\"+": 1325,
      "\"#\"\"\"\"$A*\"#": 1326,
      "3>": 1327,
      "+&!*": 1328,
      ",$-*.#-": 1329,
      "(\"#\"\"\"\"\"#": 1330,
      "\"&\"\"\"1\"\"\"\"\"1\"&*": 1331,
      "\"1\"\"\"9\"\"\"\"\"9": 1332,
      "!)!&": 1333,
      "\"&+\"$(*": 1334,
      "!!\"#\"\"$": 1335,
      "!!$(*": 1336,
      "!$)-*!#": 1337,
      "!!!!1": 1338,
      "!/$)-*$)-*(": 1339,
      "!$(": 1340,
      "4!)(4(!$)-*": 1341,
      "\"1\"\"$A*\"\"": 1342,
      "!$(*)(": 1343,
      "8$-*$": 1344,
      ",#!!,&": 1345,
      "!#!!!!!#*": 1346,
      "\"#\"\"&\"$": 1347,
      "6#$": 1348,
      "!!!!!1*": 1349,
      "+#\"\"": 1350,
      "!!&*+#": 1351,
      "\"&\"\"\"\"\"&*\"\"#*": 1352,
      "7+#": 1353,
      "($!*!$)-*": 1354,
      "\"\"$!*\"$)-*0": 1355,
      "\"#\"\"\"$%\"&+": 1356,
      "E$)-*B*\"#": 1357,
      "!\"#\"+$": 1358,
      "!(&!!!$": 1359,
      "+\"$-*": 1360,
      "(#!!!$": 1361,
      "&*\"\"#*": 1362,
      "(!$)-*\"#\"\"\"$": 1363,
      "\"#\"$2*\"\"": 1364,
      "*($": 1365,
      "6$!*$": 1366,
      "$A*\"$": 1367,
      "!\"#\"'": 1368,
      "\"1\"\"&": 1369,
      "!!.98:": 1370,
      "!&1": 1371,
      "++1": 1372,
      "+\"1*": 1373,
      "\"+1": 1374,
      "69": 1375,
      "+\"&\"$": 1376,
      "\"#\"\"\"\"$-": 1377,
      "!-!$)-*!#": 1378,
      "/!*": 1379,
      "\"&\"\"\"\"1\"\"\"\"\"&1*": 1380,
      "!!$)-*-,#": 1381,
      "(!$)-*\"#\"\"\"\"\"#": 1382,
      "89$!*": 1383,
      "!!:*": 1384,
      "\"%&": 1385,
      "*\"\"$%": 1386,
      "!$!*!*\"\"#": 1387,
      "!$)-*(!!$)-*(": 1388,
      "!&*!#": 1389,
      "!!!!1*": 1390,
      "\"\"&*\"#": 1391,
      "\"#\"\"\"\"$(": 1392,
      "8&1": 1393,
      "\"1\"\"\"\"\"12*": 1394,
      "!!!!$)-*(": 1395,
      ",$(*": 1396,
      "!!/!*": 1397,
      "!(!": 1398,
      "(!$)-*,$!\"#\"\"\"$-*\"\"#*": 1399,
      "\"9\"\"\"$A*\"\"9*": 1400,
      "-)!$(\"#\"\"\"$": 1401,
      "!D(*\"\"#": 1402,
      "!!691!*": 1403,
      "\"$%\"1\"\"\"$": 1404,
      "\"&\"\"\"$!$)-*-*": 1405,
      "+\"\"$": 1406,
      "!!,9": 1407,
      "\"9\"\"\"\"$": 1408,
      "\"$)-*\"$!$)-*-*": 1409,
      "!$)-*-!!*": 1410,
      "!=#": 1411,
      "+#\"\"$": 1412,
      "!!+#\"$": 1413,
      "!!!!!&*\"\"#": 1414,
      "\"1\"$A*\"\"": 1415,
      "!!\"#\"\"\"\"\"#*": 1416,
      "\"&-*": 1417,
      "!+#\"$": 1418,
      "!\"#\"\"$(": 1419,
      "!-!#": 1420,
      "\"&\"\"\"$-!": 1421,
      "!!$!*(": 1422,
      "!\"#\"\"\"$!*": 1423,
      ",$!\"#\"\"\"\"\"#*": 1424,
      "\"&\"\"\"$-!*\"\"&*": 1425,
      ".$!": 1426,
      "-)\"#0": 1427,
      "+\"&\"\"\"\"\"#&": 1428,
      "!!!!!&": 1429,
      ".&-*": 1430,
      "\"&*!#": 1431,
      "!D(*\"\"": 1432,
      "\"#7": 1433,
      "\"#\"\"\"\"&\"\"\"\"\"#&": 1434,
      "\"&\"\"\"$2*": 1435,
      "!\"#+\"$%": 1436,
      "\"&\"\"\"1+": 1437,
      "\"#1*": 1438,
      "$!!$)-*(": 1439,
      "1*!#*": 1440,
      "\"#-*": 1441,
      "!!)!": 1442,
      "\"#\"\"\"&\"\"\"\"\"&\"#": 1443,
      "!!!,&": 1444,
      "\"1\"\"\"\"\"1*\"\"&": 1445,
      "!$)-*(&!!($": 1446,
      "!-\"#\"\"\"$2*\"\"#": 1447,
      "\"#(": 1448,
      "0&*": 1449,
      "8#$-*": 1450,
      "!!!$!*$!*": 1451,
      "(!$)-*!-": 1452,
      "\"9:*": 1453,
      "!$!*$!*.:": 1454,
      "\"#\"\"$A*\"\"": 1455,
      "!!&*!#": 1456,
      "\"&\"\"$-!*\"$-!*\"$-!*": 1457,
      "\"#\"\"\"\"\"#-": 1458,
      "\"19*\"\"": 1459,
      "\"&\"\"\"$A*": 1460,
      "!!6#&": 1461,
      "()!#": 1462,
      "!!\"&\"\"\"\"\"&": 1463,
      "!\"#\"\"\"$/$)-*$)-*": 1464,
      "\"1\"\"\"\"\"1A*": 1465,
      "!9)-*": 1466,
      ")(*": 1467,
      "\"#+\"\"$": 1468,
      "!$)-*!": 1469,
      "!/!!,$": 1470,
      "\"1\"\"\"\"$!$A*$A*A*": 1471,
      "\"&\"\"+\"\"": 1472,
      "\"#\"\"\"\"\"#2": 1473,
      "\"&\"\"\"$2*\"\"&*\"\"#": 1474,
      "\"#\"\"\"$-!*\"\"#": 1475,
      "(!$)-*.&!!!(&": 1476,
      "++$%": 1477,
      "\"1\"\"\"9\"$\"1*-!-9*": 1478,
      "4\"$": 1479,
      "!$!D(*": 1480,
      "!!$!*$": 1481,
      "-!!$)-*(": 1482,
      "F$)-*$-": 1483,
      "-)/$)-*$(": 1484,
      "8#$": 1485,
      "\"\"\"$(*": 1486,
      "/&": 1487,
      "7#*": 1488,
      "(!$)-*,$!\"&\"\"\"\"\"&*": 1489,
      "\"#\"\"\"\"$-*": 1490,
      "\"&\"\"'": 1491,
      "!$2*": 1492,
      ",&-": 1493,
      "F$)-*$B*": 1494,
      "*(&": 1495,
      "E$!*$!*": 1496,
      ")!$-*": 1497,
      "--": 1498,
      "!!!$)-*(#": 1499,
      "\"#\"\"$-*": 1500,
      "!!$(!$)-*": 1501,
      "\"#\"\"\"+\"#*": 1502,
      "\"$)-*+1": 1503,
      "!($!*!*": 1504,
      "\"&\"\"\"\"$-*": 1505,
      "+1*\"\"": 1506,
      "!!#&": 1507,
      "!!($!!": 1508,
      "0\"&\"#": 1509,
      "!#!!!!#": 1510,
      "\"#\"$A*\"\"": 1511,
      "\"+\"&\"#+\"+&": 1512,
      "\"#\"\"\"\"$(!$)-*": 1513,
      "!!!!($": 1514,
      "!-!$)-*(": 1515,
      "\"#++\"$%": 1516,
      "%1": 1517,
      "++&*\"\"#": 1518,
      "\"&\"\"\"10": 1519,
      "\"#\"\"$(": 1520,
      "!(!$)-*(": 1521,
      "4!)!4!$)-*-": 1522,
      "-)!$!/\"#+": 1523,
      "\"&\"\"\"$E$)-*B*\"\"&*": 1524,
      "!!(/$)-*$)-*": 1525,
      "&*+#": 1526,
      "\"#\"\"\"\"\"#&": 1527,
      "(!$)-*-!\"#\"\"\"\"\"#*": 1528,
      "\"91*": 1529,
      "!!!!!9*": 1530,
      "-!!!!": 1531,
      "!-\"#\"\"\"$/$)-*$)-*(": 1532,
      ",&!": 1533,
      "+9\"+": 1534,
      "!!)!$": 1535,
      "\"#\"&\"$": 1536,
      "!!!.$": 1537,
      "!!!1$": 1538,
      "-)!$(!#": 1539,
      ",#!!,$": 1540,
      "\"1\"\"\"$-!*\"\"1*": 1541,
      "\"1\"$%": 1542,
      "\"&\"\"\"\"$!$A*$A*A*\"&*": 1543,
      "!!69$!*,1": 1544,
      "\"9)-*": 1545,
      "!\"#\"$%": 1546,
      "\"&\"\"\"$A*\"\"&*!!#": 1547,
      "\"&\"\"\"\"$A*\"&*": 1548,
      "\"#\"\"\"$%\"&\"+": 1549,
      "\"$/$)-*$)-*(": 1550,
      "!\"#\"\"\"\"&": 1551,
      "\"\"&\"#": 1552,
      "\"#\"\"\"\"+#*": 1553,
      "!!\"&\"\"\"\"\"&*": 1554,
      "\"1\"\"\"+\"1": 1555,
      "\"$)-*0#": 1556,
      "!!#!!!!!#*": 1557,
      "\"&\"\"\"\"$E$)-*B*": 1558,
      "\"&\"\"$)-*": 1559,
      "!$!*!*!$!*!*": 1560,
      "/$!*$)-*)-": 1561,
      "+\"$(1": 1562,
      "$!\"&\"\"\"\"\"&*": 1563,
      "!!,$-*": 1564,
      "\"#+\"$!*": 1565,
      "!-!!-": 1566,
      "!!!-*": 1567,
      "=$B*": 1568,
      "\":\"\"$": 1569,
      "\"9\"\"\"$2*\"\"9*": 1570,
      "4()(4": 1571,
      "\"9\"\"\"\"\"9*\"\"1*": 1572,
      "!\"&\"\"\"\"\"&*!!#": 1573,
      "\"&\"\"\"$2*\"\"&*!!#": 1574,
      "!$)-*\"&\"\"\"\"\"&": 1575,
      "!4!)!4": 1576,
      "!$-*!$-*": 1577,
      "!-!$": 1578,
      "(!$)-*,$!\"#\"0\"&\"\"\"\"\"#&*": 1579,
      "-\"&\"\"\"$": 1580,
      "(D!\"#\"\"\"$": 1581,
      "!-\"#\"$": 1582,
      "9*!&*": 1583,
      "!#-": 1584,
      "!!1!!$!!$!": 1585,
      "6$!*$-*": 1586,
      "0#*": 1587,
      "+\"&\"\"\"\"\"&#": 1588,
      "\"&\"\"\"\"$!*": 1589,
      "/$)-*$)-*B*": 1590,
      "\"&\"\"$(": 1591,
      "!1*\"\"#": 1592,
      "\"1\"\"\"$3*\"\"1*": 1593,
      "!!+#\"\"$": 1594,
      "!!$)-*-!": 1595,
      "\"\"\"$%": 1596,
      "\"&\"\"$2*\"\"\"&": 1597,
      "\"&\"\"\"$A*\"\"&*\"\"#": 1598,
      "%\"#\"\"\"$": 1599,
      ",$!*!-*": 1600,
      "-!,1": 1601,
      "!!$(": 1602,
      "!-\"#\"\"\"$!$)-*": 1603,
      "\"1\"\"\"$(": 1604,
      "(&!!!$": 1605,
      "!$)-*-*\"\"": 1606,
      "!!1!!$!!$!1*!#*": 1607,
      "!!!!+#": 1608,
      "!-\"#\"\"\"\"&": 1609,
      "!($!*/$)-*$)-*": 1610,
      "!+#\"\"$%": 1611,
      "!!&!!&*": 1612,
      "!!$!$)-*(": 1613,
      "\"&\"$A*\"\"\"\"&": 1614,
      "\";\"\"\"\"\";": 1615,
      "!-!$)-*\"#\"\"\"$": 1616,
      "!!#)": 1617,
      ">-)!$-*!$A*$A*A>-)!$-*!$A*$A*A": 1618,
      "4!#)!5": 1619,
      "!&)-*\"#": 1620,
      "E#": 1621,
      "\"&\"\"$3*\"\"": 1622,
      "\"&!*\"\"#": 1623,
      "\"1\"\"\"$2*\"$2*": 1624,
      "\"$(*+": 1625,
      "(!$)-*,$!!!()!$(*(*": 1626,
      "\"1\"\"\"\"$A*\"1*": 1627,
      "!!(!!1*": 1628,
      "!1)": 1629,
      "\"#\"\"\"$%+&": 1630,
      "+&!": 1631,
      "-!!!-": 1632,
      "!!1*\"\"#": 1633,
      "!$)-*-#": 1634,
      "\"#\"\"\"7#*": 1635,
      "!.$-": 1636,
      "!!($/$)-*$)-*": 1637,
      "(*\"\"#": 1638,
      "\"&+0": 1639,
      "(:": 1640,
      "\"9\"\"+\"\"": 1641,
      "\"#+\"\"\"\"#": 1642,
      "!9!!9*": 1643,
      "(&!!($!$)-*": 1644,
      "!&!!!!&*": 1645,
      "8$!*$-*": 1646,
      "+\"$/": 1647,
      ",#!": 1648,
      "+\"$(!$)-*": 1649,
      "/*)(": 1650,
      "\"\"\"#&": 1651,
      "\"9\"1": 1652,
      ",#&": 1653,
      "!!!($!*!*": 1654,
      "\"&\"#)-": 1655,
      "\"$-*\"$": 1656,
      ".<": 1657,
      "\"#+7": 1658,
      "6&1": 1659,
      "\"#\"\"\"&\"$\"#*-!-&": 1660,
      "4!)!#5": 1661,
      "!+&\"+": 1662,
      "!$)-*(.$!\"&\"\"\"\"\"&*": 1663,
      "\"#\"\"\"\"$!$A*$A*A*\"#": 1664,
      "\"#\"\"\"\"$!": 1665,
      "\"9\"\"\"\"\"9*!!1*": 1666,
      "\"1\"\"\"$!$A*$A*A*\"\"1*": 1667,
      "+#%\"#\"\"\"\"\"#": 1668,
      "+:": 1669,
      "\"&\"\"\"\"$-": 1670,
      "-!\"#\"\"\"\"\"#": 1671,
      "!\"#\"\"$!*\"\"$": 1672,
      "!!!&*": 1673,
      "+$%\"&\"\"\"\"\"&*": 1674,
      "+\"+#": 1675,
      "\"&+\"$%\"1\"\"\"\"\"1*": 1676,
      "!1)(": 1677,
      "\"#+\"$(*": 1678,
      "\"&\"\"$-!*": 1679,
      "\"1\"$2*\"\"": 1680,
      "!.9": 1681,
      "!$-*$": 1682,
      "/$)-*$)-*\"#\"\"\"\"\"#": 1683,
      "+\"#*": 1684,
      "!!&)-*": 1685,
      "(!$)-*\"#\"\"$": 1686,
      "!!2*": 1687,
      "9*\"\"&": 1688,
      "+&\"#": 1689,
      "!!$!*$-*": 1690,
      "!-\"#\"\"$(": 1691,
      "\"&\"\"\"+\"&": 1692,
      "\"&\"\"\"\"\"&\"#*": 1693,
      "!1)!$": 1694,
      "!($!*\"#\"\"\"$": 1695,
      "!!\"1\"\"\"\"\"1": 1696,
      "!$)-*-!!": 1697,
      "\"9\"\"\"$-*\"\"": 1698,
      "\"&\"\"$(1": 1699,
      "\"9\"\"\"$%": 1700,
      ")!#4": 1701,
      "-)!#\"&\"\"\"\"\"&": 1702,
      "!\"#0": 1703,
      "\"\"+#": 1704,
      "!1$": 1705,
      "(,$": 1706,
      "!!&*\"\"\"#": 1707,
      "(!$)-*4!)!4": 1708,
      "!&!!1": 1709,
      "\"1\"\"\"$A*": 1710,
      "\"9\"\"\"7": 1711,
      "\"9\"\":": 1712,
      "\"1\"\"\"\"9\"\"\"\"": 1713,
      "!-!": 1714,
      "!!!!!!(": 1715,
      "\"&\"\"\"$-*\"\"&": 1716,
      ")Z": 1717,
      "!*\"#": 1718,
      "!!89": 1719,
      "9!*": 1720,
      "\"#\"\"\"\"&\"\"\"\"\"#&*": 1721,
      "\"&\"+\"\"": 1722,
      "+\"#(": 1723,
      "!-\"#\"\"\"\"\"#%": 1724,
      "!!#)(": 1725,
      ",$!*.$-*": 1726,
      "-)!$-": 1727,
      "Y$!*": 1728,
      "01*": 1729,
      "!,9": 1730,
      "8$!*": 1731,
      "!!(!!#": 1732,
      "\"#+\"\"$%": 1733,
      "\"&\"\"\"\"\"&*!#": 1734,
      "\"&\"\"\"\"\"&\"#)-": 1735,
      "++#&": 1736,
      "\"&\"\"\"$!$A*$A*A*\"\"&*": 1737,
      "*(#!!!$": 1738,
      "!!.$-*": 1739,
      "\"#\"\"\"$2*\"$2*\"#": 1740,
      ",$!*!,$": 1741,
      "!!6:": 1742,
      "!$)-*(.#": 1743,
      "!!:": 1744,
      "!$)-*!&": 1745,
      "\"$2*\"1*": 1746,
      "!$)-*(!#": 1747,
      "\"9\"\"\":\"$": 1748,
      "\"1\"\"\"\"\"1*\"\"&*": 1749,
      "\"#\"\"\"$2*": 1750,
      "(#!!-!!#": 1751,
      "\"&\"+$": 1752,
      "!$!$)-*-*": 1753,
      "\"$)-*+$!": 1754,
      "!!$-": 1755,
      "!!!($!!!*": 1756,
      "\"&\"7": 1757,
      "+$%\"1\"\"\"\"\"1*": 1758,
      "!\"#\"\"\"\"\"#%": 1759,
      "\"#\"\"\"\"\"#2*": 1760,
      "+#!": 1761,
      "!$!*$!*.:!!691!*": 1762,
      "6:": 1763,
      "!$)-*(&!!!$": 1764,
      "+\"+&": 1765,
      "-)!$(4()!4": 1766,
      "\"1\"$-*": 1767,
      "6#$-*": 1768,
      "\"\"$2*": 1769,
      "!$!*$!*-*": 1770,
      "!!9!!$!!$!": 1771,
      ".$(!$)-*": 1772,
      "!!8&#!": 1773,
      "\"#+\"$%\"&\"\"\"\"\"&*": 1774,
      "\"&\"\"\"\"\"&#*": 1775,
      "9!!-!!9*": 1776,
      "!$)-*B*": 1777,
      "!!,#-!$)-*": 1778,
      "\"1\"\"'": 1779,
      "!-#": 1780,
      "!-&": 1781,
      "61$!*": 1782,
      "-!\"&\"\"\"\"\"&*": 1783,
      "!!!!!!!!$)-*": 1784,
      "!&$!*!": 1785,
      "6&$-*": 1786,
      "2\"#\"\"\"$": 1787,
      ",#!!,&.1": 1788,
      "\"&'#": 1789,
      ")E)Z": 1790,
      "!!+#\"$)-*": 1791,
      "!.$(*": 1792,
      "!$!*$!*!*\"\"#": 1793,
      "81$": 1794,
      "!$!-*": 1795,
      "\"1+\"\"\"\"1": 1796,
      "\"1\"\"$2*\"\"\"1": 1797,
      "\"&)-*\"#": 1798,
      "\"&\"$\"#": 1799,
      "4!)!$4": 1800,
      "!($!!": 1801,
      "-!,1-.$": 1802,
      "2>2": 1803,
      "!!$)-*($!*": 1804,
      "3*\"#": 1805,
      "\"&\"\"\"$2*\"$2*\"&*": 1806,
      "(\"#\"\"": 1807,
      "\"\"$!": 1808,
      "\"&\"\"#-": 1809,
      "!&*!!#": 1810,
      "\"\"&\"$": 1811,
      "\"#\"+$%": 1812,
      "\"#\"\"\"$/$)-*$)-*(": 1813,
      "\"9*\"\"": 1814,
      "2*\"#*": 1815,
      "\"#\"\"$2*\"\"\"#": 1816,
      "!$)-*($!*!*": 1817,
      "\"$+&*": 1818,
      "0&*\"\"#": 1819,
      "\"1\"\"\"$(!$)-*": 1820,
      ".1-": 1821,
      "7&*\"#": 1822,
      "!!81$!*": 1823,
      "(!$)-*,#": 1824,
      "\"&+\"\"\"$": 1825,
      "\":9*": 1826,
      "(!#)(": 1827,
      "\"$%\"&\"\"\"$": 1828,
      "+1\"\"$": 1829,
      "!$!*)!$": 1830,
      "4()!#5": 1831,
      "\"$)-*\"&\"#": 1832,
      "(!$)-*.#!!!(#!$)-*,$": 1833,
      "!\"#\"\"\"$/$)-*$)-*(&": 1834,
      "\"C": 1835,
      "\"#\"\"\"'#*": 1836,
      "\"#\"\"\"$-*\"$-*": 1837,
      "\"&\"\"$A*": 1838,
      "\"9+\"\"": 1839,
      "!!($!!*!$)-*": 1840,
      "!4!$": 1841,
      "!$)-*(/$)-*$)-*": 1842,
      "!!($!*!!1*": 1843,
      "\"#\"\"&\"\"$": 1844,
      "!&*+#": 1845,
      "6&$": 1846,
      "!$)-*(,$!*": 1847,
      "\"+&*\"\"#": 1848,
      "\"\"\"\"9": 1849,
      "!$A*$A*!$A*$A*": 1850,
      "\"1\"\"\"\"$!$A*$A*A*\"1*": 1851,
      "\"1\"'": 1852,
      "-)!$!-!$)-*": 1853,
      "!!9!!$!!$!9*!&*": 1854,
      "!!(&!$)-*": 1855,
      "\"&\"\"\"\"$-!*": 1856,
      "*\"\"+#": 1857,
      ")/": 1858,
      "\"\"#2": 1859,
      "\"&\"$2*\"\"\"\"&": 1860,
      "\"9\"\"$2*\"\"": 1861,
      "\"1A*": 1862,
      "!!$A*$A*A*": 1863,
      "!-\"&\"\"\"$": 1864,
      "\"1+\"$(": 1865,
      ")!$!*(": 1866,
      "!!(#!!!$": 1867,
      "'&*\"#": 1868,
      "\"#\"\"\"$A*": 1869,
      "\"1\"\"\"\"$!*": 1870,
      "-)!$!(#": 1871,
      "!#)!$-*": 1872,
      "\"1+&*\"\"#": 1873,
      "!\"#'": 1874,
      "\"1\"$A*\"\"\"\"1": 1875,
      "!!($!!$)-*(": 1876,
      "\"&1*!!#": 1877,
      "!!#!!#*": 1878,
      "!$(!$)-*": 1879,
      "1*\"\"$": 1880,
      "\"#\"\"$%\"&\"\"\"\"\"&*": 1881,
      "!&$!*!*": 1882,
      "\"$-!": 1883,
      "\"$(*+\"+": 1884,
      "-!-&*": 1885,
      "-\"#\"\"\"\"\"#": 1886,
      "++\"#": 1887,
      "!!(!$)-*(": 1888,
      "\"$(!": 1889,
      "!$A*$A*A*\"\"&": 1890,
      "!!!$!!*": 1891,
      "\"#\"\"\"$%\"&\"\"\"$": 1892,
      "!\"#\"\"$-*": 1893,
      "\"9\"1*": 1894,
      "\"\"\"#-": 1895,
      "!!#!!!-": 1896,
      "\"1\"&*\"\"#": 1897,
      "\"1\"\"\"\"\"1*!!&*\"\"#": 1898,
      "!$\"#\"\"\"\"\"#*": 1899,
      "++\"#%": 1900,
      "!$)-*(-*": 1901,
      "\"$E$)-*B*\"#": 1902,
      "\"1\"\"7": 1903,
      "+&\"\"$%": 1904,
      "\"#\"\"\"\"\"#A": 1905,
      "\"&\"\"+\"$(": 1906,
      "!-!$)-*,$": 1907,
      "\"1\"\"\"$2*\"$2*\"1*": 1908,
      "\"#\"\"\"$3*\"\"#*": 1909,
      "!-F$)-*$-*-": 1910,
      "!\"#+\"$(": 1911,
      "\"1\"\"\"\"$%": 1912,
      "!-\"#\"\"\"\"\"#(#!!($": 1913,
      "++#*": 1914,
      "!&#": 1915,
      "\"#\"\"\"$-*": 1916,
      "\"#\"\"\"&\"$\"#*-!!-": 1917,
      "!#$!*!": 1918,
      "!\"#\"$!*": 1919,
      "\"&\"++1": 1920,
      "\"&1*\"#": 1921,
      "!-\"#\"\"\"&0": 1922,
      "$!9": 1923,
      ":*\"\"9*": 1924,
      "A\"#\"\"\"$": 1925,
      "\"#\"\"\"$A*\"\"#A": 1926,
      "+\"1\"$": 1927,
      "!!#$!*!": 1928,
      "\"$)/*": 1929,
      "\"#\"\"$)-*": 1930,
      "!!&!!!!!&*": 1931,
      "!!)!$!*!*": 1932,
      "\"#\"\"$2*": 1933,
      "+&\"$)-*": 1934,
      "!\"#\"$!$)-*(": 1935,
      "!\"#\"\"\"7#": 1936,
      "\"9\"\"\"\"$2*": 1937,
      ",$!": 1938,
      "=$!*": 1939,
      "\"#\"\"\"\"\"#*(#": 1940,
      "!!!(9": 1941,
      "!)!$!*.#": 1942,
      "!\"#++$!*": 1943,
      "!!$!*!": 1944,
      "(!$)-*.$!": 1945,
      "+\"+\"$(": 1946,
      "\"1\"\"\"$E$)-*B": 1947,
      "(!$)-*,$!$!*!*": 1948,
      "!!$!*)!!!": 1949,
      "!$)-*-*\"#": 1950,
      "!!!($!*": 1951,
      "+\"1\"\"\"\"\"1": 1952,
      "\"$A*\"&*": 1953,
      "\"#\"\"\"$2*\"\"#2": 1954,
      "(\"#+\"$(": 1955,
      "\"\"\"\"\"9": 1956,
      "\":0": 1957,
      "!!$)-*(!": 1958,
      "!!,$!*.#": 1959,
      "!!1*\"\"&*": 1960,
      "!$!": 1961,
      "\"&\"$(": 1962,
      "(#!!($!$)-*": 1963,
      "1*\"\"\"&": 1964,
      "\"1\"\"$-!*": 1965,
      "!\"#\"\"\"\"$!*\"#": 1966,
      ",$!*.$-.&-": 1967,
      "!!$!*$!*!*": 1968,
      "!!!!!!#": 1969,
      ",$!*!,$($!*!*": 1970,
      "\"0#": 1971,
      "4!)!1": 1972,
      "!!!!!!!": 1973,
      "3*\"\"$": 1974,
      "!1!!!!1*": 1975,
      "\"&\"\"\"$%\"1\"\"\"\"\"1*\"\"&*": 1976,
      "1*\"\"\"&#": 1977,
      "!!6&$": 1978,
      "\"#\"\"\"&7": 1979,
      "\"1+7": 1980,
      "\"#\"+\"\"$": 1981,
      "!//!.$": 1982,
      "!!#!!($": 1983,
      ".#-*": 1984,
      "\"#\"\"\"\"$E$)-*B*\"#": 1985,
      "\"#\"\"\"$-*\"\"#*": 1986,
      "(!$)-*(#": 1987,
      ",<": 1988,
      "-,1": 1989,
      "\"1\"\"\"9": 1990,
      "7\"$)-*": 1991,
      "!\"#\"\"\"+\"#": 1992,
      "!($!*!": 1993,
      "\"&+\"\"\"+": 1994,
      "4()!$4": 1995,
      ",#-*": 1996,
      "++$!*": 1997,
      "!$!*!*\"#": 1998,
      "!!!!&*\"\"#": 1999,
      "!-\"#\"\"\"\"&\"#": 2000,
      "\"&\"\"\"$E$)-*B*\"\"&": 2001,
      "-&*\"\"#": 2002,
      "\"&\"\"\"$3*\"\"&": 2003,
      "(!!!!": 2004,
      "!\"&\"$": 2005,
      "\"&#*": 2006,
      "\"&\"\"\"+\"&*\"\"#": 2007,
      "\"\"\"&\"#": 2008,
      "!\"#\"\"\"$-*\"\"#": 2009,
      "\"&\"#\"\"": 2010,
      "\"$!(": 2011,
      "(!$)-*!&": 2012,
      "8&$-*": 2013,
      "-!#)-": 2014,
      "\"1\"\"$-!*\"$-!*\"$-!*": 2015,
      "()!&": 2016,
      "-)F": 2017,
      "\"1\"0\"9\"\"\"\"\"19*": 2018,
      ">-": 2019,
      "\"&\"\"\"$2*\"\"&*\"#": 2020,
      "4!$)(4-*": 2021,
      "(!$)-*,$.$!*-*": 2022,
      "\"\":": 2023,
      "!:*": 2024,
      "-9*": 2025,
      ".$-*,#-": 2026,
      "+\"1&*": 2027,
      "$\"#\"\"\"\"\"#*": 2028,
      "\"#\"$(": 2029,
      "+\"#!": 2030,
      "!$)-*(.$!!!!(*!$)-*(.$!!!!(*": 2031,
      "-F$)-*$-*": 2032,
      "\\$-*": 2033,
      "+$%\"&\"\"\"\"\"&*+#": 2034,
      "+\"&*\"\"#": 2035,
      "!$)-*(.$!!!(!$)(*(*!$)-*(.$!!!(!$)(*(*": 2036,
      "-#*": 2037,
      "!-\"#\"\"\"$-": 2038,
      ".$!\"#\"\"\"\"\"#*": 2039,
      "$!*!!,$-*": 2040,
      "4!$!D(*": 2041,
      "!!81": 2042,
      "!)!!$)-*(": 2043,
      "\"1\"\"\"$E$)-*B*\"\"1*": 2044,
      "\"$!$(*)-*": 2045,
      "\"&\"\"\"1\"$\"&*-!!-": 2046,
      "!!9*\"\"": 2047,
      "!(#!!": 2048,
      "2*\"\"1": 2049,
      "!-\"#\"\"\"$!(": 2050,
      "!-\"#\"\"\"$!(!$)-*": 2051,
      "/!$)/*(": 2052,
      "\"&\"\"\"$A*\"\"&A*": 2053,
      "()": 2054,
      "-!-1": 2055,
      "-)!$!/": 2056,
      "*\"\"\"#%": 2057,
      "\"&\"\"$2*": 2058,
      "\"9\"\"\"\":": 2059,
      "\"&\"\"\"\"1\"&": 2060,
      "\"&\"\"\"\"$3*": 2061,
      "!$)-*(9": 2062,
      "-*,$-*": 2063,
      "-!,&": 2064,
      "\"#\"+&": 2065,
      "\"9\"\"\"\"\"9*\"\"": 2066,
      "\"1\"\"\"$-*\"\"1": 2067,
      "\"9\"\"\"79*": 2068,
      "!!(!!&*": 2069,
      "\"&\"\"$!$A*$A*A*\"\"": 2070,
      "\"'&*": 2071,
      "!#&!!1!!$!!$!1*!#*": 2072,
      "\"1\"\"\"$!D(": 2073,
      ".&!": 2074,
      "\"#\"\"+\"\"#*": 2075,
      "\"&++0": 2076,
      "7\"#&": 2077,
      ")!$(": 2078,
      "\"#+++": 2079,
      "\"&\"\"\"$-!*\"$-!*": 2080,
      "\"1\"\"\"$2*": 2081,
      "!//!,$": 2082,
      "!$)-*-!!$)-*(": 2083,
      "\"1*\"\"&*": 2084,
      "\"&\"\"+\"\"&": 2085,
      "!$-": 2086,
      "!!&!!!-": 2087,
      "\"&\"1": 2088,
      "Y$!*$!*": 2089,
      "\"#\"\"$(!$)-*": 2090,
      "\"\"#%": 2091,
      "\"&\"\"\"$-*\"$-*": 2092,
      "\"\"$(": 2093,
      "!!-!*": 2094,
      "\"#\"\"\"\"$2*\"#*": 2095,
      "!$)-*(#!!($!$)-*": 2096,
      "\"&\"\"\"$A*\"\"&*\"#": 2097,
      "(/$)-*$)-*\"#\"\"\"$": 2098,
      "!!61$!*,$": 2099,
      "\"1\"\"\"\"\"#1*": 2100,
      "!,$-!$)-*": 2101,
      "\"$)-*0\"&)-*": 2102,
      "-!$!-*": 2103,
      "\"&\"\"$2*\"\"$2*": 2104,
      ".#!!!(#": 2105,
      "\"$)-*+&!": 2106,
      "\"&\"\"\"\"$(!$)-*": 2107,
      "!$)-*(\"#\"\"\"\"\"#": 2108,
      "\":\"9": 2109,
      "!.#-": 2110,
      "+\"&1*": 2111,
      ".&!#": 2112,
      "&*!!#*": 2113,
      "!1*\"\"&": 2114,
      "!!$!*$!*(": 2115,
      "!$)-*(!\"#\"\"\"\"\"#": 2116,
      "\";\"\"\"$": 2117,
      "\"1\"$0": 2118,
      "!!)!9": 2119,
      "\"#\"\"\"$%\"&\"\"\"\"\"&*\"\"#": 2120,
      "!!!(#!!($": 2121,
      "!\"#\"\"+\"\"#": 2122,
      "+\"+\"1&*": 2123,
      "!+&\"\"": 2124,
      "\"&\"\"\"$!*\"\"&*\"\"#": 2125,
      "//": 2126,
      "\"&\"\"\"\"\"&-*": 2127,
      "()!$(": 2128,
      "\"9\"\"\"\"+9*": 2129,
      "-.9": 2130,
      "+\"&'": 2131,
      "\"#\"$-!*": 2132,
      "\"&\"+$%": 2133,
      ".$-!*": 2134,
      "!!\"1\"\"\"\"\"1*": 2135,
      "(!$)-*\"#\"+": 2136,
      "/#$)-*)-": 2137,
      "!!$!*$!*\"#\"\"\"$": 2138,
      "!!#)-": 2139,
      "!!$\"&\"\"\"\"\"&*": 2140,
      "\"1\"\"$-!*\"$-!*": 2141,
      "!$!*!*!$!*!": 2142,
      "!$)-*(!&": 2143,
      "!\"#+7\"$!*\"#": 2144,
      "\"9\"\"\":\"$\"9*": 2145,
      "4()": 2146,
      "!!!1$!!&*": 2147,
      "\"&\"\"\"$/$(*$)-*)-*": 2148,
      ".$-*.$-*": 2149,
      "!-\"#\"\"\"$%\"&+": 2150,
      "!\"#\"\"\"$%+&": 2151,
      "!!1!!1*": 2152,
      "\"$2*\"\"#": 2153,
      "(\"#+\"+\"&\"#+\"+&": 2154,
      "!!#!!!!!#": 2155,
      "\"\"\"+1*": 2156,
      "E$!*$!*!*": 2157,
      "\"#\"$A*\"\"\"\"#": 2158,
      "!!!#*": 2159,
      "\"%1": 2160,
      "\"9\"\"\"'": 2161,
      "$-!*": 2162,
      "(*+\"+\"1&*": 2163,
      "\"#A": 2164,
      "\"#%&": 2165,
      "(\"#+\"$(*": 2166,
      "\"#++$%": 2167,
      "\"&7#": 2168,
      "!$)-*(!!!!": 2169,
      "!$)-*(,$!$)-*(,$": 2170,
      "\"\"$-!*\"#-!": 2171,
      "!\"#\"\"\"$2*\"\"#*": 2172,
      "!$\"1\"\"\"\"\"1*": 2173,
      "\"1+\"$!*": 2174,
      "!!-!!-!!-!!-": 2175,
      "-.$!-*": 2176,
      "(!$)-*,$(*": 2177,
      "!-\"#\"\"\"$/$)-*$)-*(&": 2178,
      "!$A*$A*A*\"#*": 2179,
      "+1!*": 2180,
      "\"&\"\"$%\"1\"\"\"\"\"1*": 2181,
      "!(!$)-*,$": 2182,
      "1*\"\"&*!!#": 2183,
      "\"#\"\"+": 2184,
      "+#\"$": 2185,
      "!-!$!*)-*": 2186,
      "!&1!!9!!$!!$!9*!&*": 2187,
      "$!!-*": 2188,
      "'\"&": 2189,
      "-!-9*\"\"": 2190,
      "=1": 2191,
      "\"#\"\"$!$)-*(": 2192,
      "!-\"&\"\"\"\"\"&": 2193,
      "!1)-": 2194,
      "*(#!!-!!#": 2195,
      "\"&\"\"\"$!D(": 2196,
      ")!4!": 2197,
      "1*\"\"&#": 2198,
      "\"#\"\"\"\"$-*\"#": 2199,
      "\"#\"7": 2200,
      "!!!.&": 2201,
      "\":\"+": 2202,
      "\"1\"\"\"\"$-*": 2203,
      "\"1\"\"\"$/$)-*$)-*(": 2204,
      ".#!!": 2205,
      "!)!5": 2206,
      "\"#%\"#\"\"\"\"\"#": 2207,
      "4!&": 2208,
      "\"&\"+\"$(": 2209,
      "\"&\"\"\"\"+&*\"\"#": 2210,
      "!!!$(": 2211,
      "\"#2": 2212,
      "\"9\"\"\"$-": 2213,
      "!#!!": 2214,
      "\"&\"1\"\"\"\"\"1": 2215,
      "!2*": 2216,
      "\"$(/$)-*$)-*": 2217,
      "++\"$%": 2218,
      "!)!!(": 2219,
      "\"9\"\"\"\"$A*": 2220,
      "!)!!": 2221,
      "!(#!!($!$)-*": 2222,
      "!(!!": 2223,
      "\"++&": 2224,
      ".$!!$!*!*": 2225,
      "&*\"\"#-!": 2226,
      ")!&5": 2227,
      "++&%": 2228,
      "\"1+&": 2229,
      "!-!*": 2230,
      "!!($!*!!&*": 2231,
      "+9\"+\":": 2232,
      "(&!!!!!&*": 2233,
      "\"$)-*\"$!$)-*-*\"+": 2234,
      "\"#\"\"\"&+\"$": 2235,
      "!\"#\"\"$2*\"\"": 2236,
      "\"$A*\"\"": 2237,
      "\"12*": 2238,
      "!$)-*.$(*": 2239,
      "!!$)-*(.$!\"#\"\"\"\"\"#*": 2240,
      "!+#+\"$": 2241,
      "-&*\"$)-*0\"#)-": 2242,
      ")E)Z*": 2243,
      "(,#": 2244,
      "!($!\"#\"\"\"\"\"#*": 2245,
      "!!89$!*": 2246,
      ",$!$)-*-*": 2247,
      "!$!$)-*": 2248,
      "\"1\"\"\"$-!$A*$A*A*\"\"": 2249,
      "4!$)(5-*": 2250,
      "\"1\"\"\"\"\"1%": 2251,
      "!!$!$)-*-*": 2252,
      "+$!*\"#)-": 2253,
      "\"#\"\"\"$E$)-*B*\"\"#*": 2254,
      "!-\"#\"\"&\"$": 2255,
      "!!#!!#": 2256,
      ",$!*!,$($!*!*,&-*": 2257,
      "9*\"1*": 2258,
      "!!!$!$)-*(": 2259,
      "+$!!$)-*(": 2260,
      ".$!*!!": 2261,
      "4!$-*": 2262,
      "\"#\"\"\"\"\"#A*": 2263,
      "!\"#\"\"\"&\"$": 2264,
      "!$A*$A*A*\"\"#*": 2265,
      "!($!!$)-*(": 2266,
      "\"&+\"\"1": 2267,
      "\"9\"\"\"+\"9*": 2268,
      "!$(*)-*\"$(": 2269,
      "+&*!#": 2270,
      "+&*+#": 2271,
      "!!6#&!": 2272,
      "1!!($": 2273,
      "!!61$!*,$!!.98:": 2274,
      "8$": 2275,
      "!\"#++\"$": 2276,
      "!1*\"\"&*": 2277,
      "1*\"\"&*\"#": 2278,
      "!($/$)-*$)-*": 2279,
      "!\"#\"\"$A*\"\"": 2280,
      "!$)-*(&!!!,&": 2281,
      "-)!$B*": 2282,
      "-,$!*": 2283,
      "\"1+$": 2284,
      "!$A*$A*A*\"\"&*": 2285,
      "\"+#&": 2286,
      "\"\"&*!!#": 2287,
      "!\"#+\"&\"$": 2288,
      "=$!": 2289,
      "\"#\"0\"&\"\"\"\"\"#&": 2290,
      "-.$+": 2291,
      "-)!$!!!!": 2292,
      "$!*!!,$": 2293,
      "!!-!$)-*\"#\"+": 2294,
      "\"&+\"\"$%": 2295,
      "\"\"\"\"#&": 2296,
      "!!!+#\"$)-*": 2297,
      "\"&\"\"\"$%\"1\"\"\"$": 2298,
      ",$-!*": 2299,
      "\"$-*\"$-*": 2300,
      "!&!!!!!&*\"\"#": 2301,
      "\"&\"\"7": 2302,
      "4()!5": 2303,
      "-)!": 2304,
      "$A*A*": 2305,
      "!$)-*(&!!": 2306,
      "+&++": 2307,
      "($!!$)-*(": 2308,
      "!!-!$)-*\"#\"$": 2309,
      "$A*$A*A*": 2310,
      "!!!(&!$)-*": 2311,
      "!$/*)(": 2312,
      "6#$!*-": 2313,
      "\"\"\"&#": 2314,
      "\"1\"$)-*": 2315,
      ")(#": 2316,
      "()!$/*(": 2317,
      "(!#)-*": 2318,
      "(!$)-*,$!\"&\"\"\"$-*\"\"&*": 2319,
      "!!-\"#\"\"\"$%": 2320,
      "!$)-*(.$!!!!(*!$)-*(.$!!$!*!*": 2321,
      "!$)-*B": 2322,
      "!$)/*(#": 2323,
      "!$!!*": 2324,
      "\"1\"\"\"$2*\"\"12*": 2325,
      "\"#\"\"\"$2*\"$": 2326,
      "(1!!-!!1*": 2327,
      "!\"#\"\"\"\"$(": 2328,
      "+7&*\"\"#": 2329,
      "+\"1\"&": 2330,
      "!-\"#\"\"$4!)!4": 2331,
      "4!)!4!)!4": 2332,
      "!+1": 2333,
      "\"#+0": 2334,
      "!!!,1": 2335,
      "\"1\"\"\"\"9\"\"\"\"\"19*": 2336,
      "!-!!(#": 2337,
      "-)!#(!$)-*": 2338,
      "+&+#": 2339,
      "\"1+&*": 2340,
      "!-\"#\"\"\"$!!(!$)-*": 2341,
      "-)!$(-*": 2342,
      "-)\"#7": 2343,
      "-)\"#\"\"$": 2344,
      "!!!#$": 2345,
      "7\"#": 2346,
      "*($!": 2347,
      ".1-*": 2348,
      "!,$(": 2349,
      "!!!D(*": 2350,
      "!\"#\"\"\"$-!": 2351,
      ",$!\"&\"\"\"\"\"&*": 2352,
      "!!$)-*(#!!($": 2353,
      "!!!!$)-*-*": 2354,
      "\"$2*\"&*": 2355,
      "\"&\"\"\"7&*\"\"#": 2356,
      "\"&\"\"$!1": 2357,
      "\"&+7\"$": 2358,
      "\"&\"\"\"\"$E$)-*B*\"&*": 2359,
      "!#)/": 2360,
      "\"&\"+$!": 2361,
      "\"&\"\"\"'&*\"\"#": 2362,
      "\"&*\"\"#-!": 2363,
      "(&!!": 2364,
      "!1$!*!*": 2365,
      "#!*": 2366,
      "$-*$-*": 2367,
      "*(-": 2368,
      "\"+&*!!#": 2369,
      "\"1%": 2370,
      "!$)-*(&!": 2371,
      "&*\"\"\"#": 2372,
      "!!!!.#": 2373,
      "\"&\"\"\"$A*\"$A*": 2374,
      "\"&\"\"\"$%\"1\"+": 2375,
      "!+#\"$%": 2376,
      "\"1\"\"\"$!D(*\"\"1*": 2377,
      "!!$!*!.#": 2378,
      "\":\"\"\"\"\"9:*": 2379,
      "+\"&+": 2380,
      "(!$)-*!(": 2381,
      "-!\"1\"\"\"\"\"1*": 2382,
      "<*": 2383,
      "!$)-*!/": 2384,
      "\"'&*\"\"#": 2385,
      "\"&\"\"$E$)-*B*\"\"": 2386,
      "\"$A*\"\"&": 2387,
      "0+#": 2388,
      "\"0&*": 2389,
      "!!9*\"\"1*": 2390,
      "!$!*!$)-*(": 2391,
      "+\"$2*": 2392,
      "!$!*$!*.:!!691!*.#&": 2393,
      "\"&\"$%\"1\"\"\"\"\"1*": 2394,
      "-)!$-*!$A*$A*A": 2395,
      "\"$)-*0\"$(*+": 2396,
      "!;": 2397,
      "&*\"#!": 2398,
      "+$!\"&\"\"\"\"\"&*": 2399,
      "!-\"#\"\"\"$-!*\"$": 2400,
      "\"1\"\"$-*\"\"\"1": 2401,
      "\"$-!!": 2402,
      ",$!*.$-.&-,$!*!,$($!*!*,&-*": 2403,
      "\"\"\"$-*": 2404,
      "!!-!!:*": 2405,
      "!!\"#\"$": 2406,
      "\"1\"\"\"\"$-!*": 2407,
      "!!(&!!-!!&*": 2408,
      ",&!!,$": 2409,
      "!!!$(*": 2410,
      "-!!(": 2411,
      "\"&\"+1": 2412,
      "!&!1": 2413,
      "\"\"9*": 2414,
      "!&!!($!$)-*": 2415,
      "!!-!$)-*(": 2416,
      "\"\"12*": 2417,
      "/$)-*$)-*B": 2418,
      "!\"#\"\"\"$A*\"\"#*": 2419,
      ",$(!$)-*": 2420,
      "2>(": 2421,
      "!\"#\"\"\"+": 2422,
      "\"#\"\"\"&\"$\"#*-!-&*": 2423,
      "$!D(*\"\"": 2424,
      "!]$B*": 2425,
      "!!!$-": 2426,
      "\"&\"\"\"$(!$)-*(": 2427,
      ",$!!$!*!*": 2428,
      "!(#!!($!": 2429,
      "(!$)-*,$!\"&\"0\"1\"\"\"\"\"&1*": 2430,
      "!,$-": 2431,
      "\"#\"\"\"&\"$\"#*(": 2432,
      "\"$(9": 2433,
      "\"1*!!&*": 2434,
      "\"&+\"+\"$(": 2435,
      "($!*!": 2436,
      "($!!2*": 2437,
      "\"#\"\"\"$!(": 2438,
      "*\"\"&*\"\"#": 2439,
      ",9-*": 2440,
      "\"+9*": 2441,
      "69$!*": 2442,
      "-!!*": 2443,
      "!-\"#\"\"\"$4!)!4": 2444,
      "\"1\"\"$-!*\"$-!*\"$-!*\"1*": 2445,
      "!E#": 2446,
      "+9\"\"$!*\"$)-*0": 2447,
      "4!#)!4": 2448,
      "+9\"\"$!*\"$)-*0\"9)-*": 2449,
      "!!($!*!!#": 2450,
      "!-!!(!$)-*": 2451,
      "\"9*!!1*": 2452,
      "F$)-*$-!!*": 2453,
      "\"1\"\"\"\"\"1!*": 2454,
      "\"&\"\"$-!*\"$-!*": 2455,
      "+9\"\"": 2456,
      "\"1\"\"\"\"$3*": 2457,
      "!!!-1*": 2458,
      "!!6:$!*": 2459,
      "&!*": 2460,
      "\"1\"9\"$": 2461,
      "!(:": 2462,
      ".$!*!-*": 2463,
      "!#!!#*": 2464,
      "\"&\"\"\"$%\"1+": 2465,
      "\"#\"\"\"\"$A*\"#*": 2466,
      "\"1\"\"9\"\"\"\"\"9": 2467,
      "!!!9*": 2468,
      "\"$%\"9\"\"\"\"\"9*": 2469,
      "\"$!*\"$!*": 2470,
      "!)!#!$)-*-": 2471,
      "!!+&": 2472,
      "\":\"\"\"\"\":*\"\"": 2473,
      "!!!$A*$A*": 2474,
      "!!!!!(": 2475,
      "!!!!:*": 2476,
      "$!D!": 2477,
      "!!!$-*$": 2478,
      "-!9": 2479,
      "\"&\"\"+\"\"&*\"\"#": 2480,
      "!!-!$": 2481,
      "!-\"#\"\"\"$!&)(": 2482,
      "-)/#": 2483,
      "-)!$-*!#": 2484,
      "!,#-": 2485,
      "!!$-*!-": 2486,
      "&*\"\"$": 2487,
      "-.$!*": 2488,
      "\"9+1*": 2489,
      "8#$!*!!": 2490,
      "\"&\"\"\"$-!*\"\"&*\"\"#": 2491,
      "1*!&": 2492,
      "F$)-*$/*": 2493,
      "2>2>": 2494,
      "!!$!*+#": 2495,
      "!$)-*(.$!\"#\"\"\"\"\"#*!$)-*(,$": 2496,
      "!\"&\"\"\"\"\"&*\"\"#": 2497,
      "\"1\"\"\"$A*\"\"1A*": 2498,
      "4!)!15": 2499,
      "8$!*$-!*": 2500,
      "+++\"#": 2501,
      "!!!!$!*$!*": 2502,
      "+0#": 2503,
      "!\"#\"\"$(!$)-*": 2504,
      "\"#\"\"\"$/$)-*$)-*(&": 2505,
      "!\"#\"\"$-": 2506,
      "2*\"$2*\"#": 2507,
      "\"&+\"$(1": 2508,
      "!$!D(*)!$(*": 2509,
      "-)!#4!$)!4": 2510,
      "(#!!!!#": 2511,
      "!+&\"\"$": 2512,
      "!!!9)!!$)-*": 2513,
      "\"&\"\"\"\"\"&/": 2514,
      "\"1\"\"\"$-!*\"$-!*": 2515,
      "!\"#\"\"\"&0": 2516,
      "(\"#+\"$%": 2517,
      "\"&+\"1\"\"$": 2518,
      "$-*$!": 2519,
      "-)\"#\"&\"\"\"\"\"&": 2520,
      ",#!-": 2521,
      "%\"#\"\"": 2522,
      "!.$!-*": 2523,
      "!-!!(": 2524,
      "!$)-*(4()!4": 2525,
      "*(#!!!!#": 2526,
      "!-\"#\"\"$!&": 2527,
      "6#&!": 2528,
      "!-\"#\"\"$-*": 2529,
      "/!!$)-*(&": 2530,
      "61$-*": 2531,
      "\"&\"\"\"\"\"&!*": 2532,
      "4!$!*)!4!!": 2533,
      "!!(#!!-!!#": 2534,
      "!\"#\"\"$)-*7": 2535,
      "\"$A*\"$A*": 2536,
      "-)!$!!": 2537,
      "\"#+\"\"'#": 2538,
      "!$)-*\"1\"\"\"\"\"1": 2539,
      ".$(": 2540,
      "\"1\"\"\"9\"\"\"\"\"9\"1*": 2541,
      "\"1\"\"$-!*\"$-!*\"\"1": 2542,
      "\"&\"\"1\"\"$": 2543,
      "!$)-*(.$!\"#\"+\"0#*": 2544,
      "!\"#\"\"\"\"$(!$)-*": 2545,
      "\"#\"\"\"$!(&": 2546,
      "\"&\"\"\"$($!*!*": 2547,
      "+\"&\"#+\"+&": 2548,
      "\"#*\"#\"\"\"\"\"#": 2549,
      "\"9\"\"+\"\"9*": 2550,
      "\"&\"\"$%\"1\"+": 2551,
      "!#!!($!": 2552,
      ".&#": 2553,
      "/$!*$)-*)-*\"\"#": 2554,
      "-!!-9*": 2555,
      "\"#\"\"\"$!&": 2556,
      "\"&+\"+\"1": 2557,
      "!#)!!$)-*": 2558,
      "!!-!$)-*\"#\"$!*": 2559,
      "\"#\"+\"\"$%": 2560,
      "\"&+\"+$": 2561,
      "&*\"\"$-!*\"#-!": 2562,
      "\"$%\"9\"\"\"$": 2563,
      "\"&\"\"\"$!*\"\"&": 2564,
      "!!69$!*,1!!8&#!": 2565,
      "(!$)-*!!!!": 2566,
      "!\"#\"$-*": 2567,
      "-!!#": 2568,
      "\"&\"\"$-!": 2569,
      "!-\"#\"\"$.&": 2570,
      "89$!*!!": 2571,
      ",1!,$": 2572,
      ",#!!": 2573,
      "-)!$(\"#\"\"\"\"$": 2574,
      "!$!*$": 2575,
      "\"#\"\"$2*\"\"$": 2576,
      "\"#\"\"$-": 2577,
      "!.$-!$)-*": 2578,
      "!!$)-*(,$": 2579,
      "!$-*$!$A*$A*A*": 2580,
      "\"&\"\"$!": 2581,
      "!8$-*$": 2582,
      "\"&\"\"\"\"+&*!!#": 2583,
      "!)!!$)-*": 2584,
      "1!!-!!1*\"\"": 2585,
      "!&!!($!": 2586,
      "\"&(#": 2587,
      "\"&\"\"\"$E$)-*B*\"\"": 2588,
      "\"\"&1*": 2589,
      "!!(&!!($": 2590,
      "+\"#-": 2591,
      "\"&\"\"\"$2*\"\"&*!#": 2592,
      "\"1-*": 2593,
      "!!!!!!!!!!": 2594,
      "!.#!($": 2595,
      "/!$": 2596,
      "!!1$": 2597,
      "!!$)-*-.#": 2598,
      "\"#\"\"\"$!D(*\"\"#": 2599,
      "\"#\"\"$-!*": 2600,
      "(!$)-*!(!$)-*.$": 2601,
      "!$)/*(!$)-*": 2602,
      ")!4!)!4": 2603,
      ".&!!": 2604,
      "\"9\"\"$A*\"\"": 2605,
      "!-!$)-*4!)!4": 2606,
      "4!)!&4": 2607,
      "!$!*$!*-": 2608,
      "$!*!*\"\"#": 2609,
      "\"#\"+$!": 2610,
      "\"&\"\"\"$)-*": 2611,
      "!$)-*-*\"$)-*": 2612,
      "!!+#\"+": 2613,
      "++#%": 2614,
      "!!D(*": 2615,
      "\"$%\"1\"+": 2616,
      "(!$)-*,$!-*(!$)-*.$": 2617,
      "\"#+\"&\"\"\"\"\"&'#": 2618,
      "\"&!#)-": 2619,
      "\"#\"$%\"&\"\"\"\"\"&*": 2620,
      "(!$)-*,$!\"#\"0\"+#*": 2621,
      ">o": 2622,
      "+1\"+\"9": 2623,
      "\"1\"\"\"90": 2624,
      "(1!!($": 2625,
      "\"&\"'\"$(": 2626,
      "-)/#$)-*": 2627,
      "!)!!-": 2628,
      "4()!$5(*": 2629,
      "!$)-*-,$": 2630,
      "+1\"$": 2631,
      "\"&1": 2632,
      "-,$!-*,$-*,$-*": 2633,
      "\"1\"\"\"$!$)-*-*": 2634,
      "!$)!*": 2635,
      "-F$)-*$-*-!,1-.$": 2636,
      "\"&\"\"$(!$)-*(": 2637,
      "!$)-*-,#": 2638,
      "!-\"#\"\"$!*": 2639,
      "!4!)!5!4!)!5": 2640,
      "\"#\"\"\"&\"$\"#*-!!-&": 2641,
      "(!$)-*\"#\"\"": 2642,
      "!!!!($!!!!*": 2643,
      "!!!($/$)-*$)-*": 2644,
      "\"&\"\"+\"1\"\"$2*\"\"": 2645,
      "\"&9*": 2646,
      "!\"&\"\"\"$-*\"\"&*": 2647,
      "\"$)-*\"#": 2648,
      "-)!#!!$": 2649,
      "!\"#\"+$,&": 2650,
      "!\"#\"$2*\"\"": 2651,
      "0\"#&": 2652,
      "(/$!*$)-*)-*": 2653,
      "/$)-*$)-*-": 2654,
      "(!$)-*.$!\"&\"\"\"\"\"&*": 2655,
      "!!+#\"\"": 2656,
      "!(1!!!!": 2657,
      "\"\"$%\"1\"\"\"\"\"1*": 2658,
      "!#!!($!$)-*": 2659,
      "\"&\"+\"$(*": 2660,
      "!#!!($/$)-*$)-*": 2661,
      "\"9\"\"\"$2*\"\"9": 2662,
      "\"#\"\"\"$2*\"\"#2*": 2663,
      "!()!$": 2664,
      "E$)-*B*\"\"$": 2665,
      "!!$)-*(#!!!,#": 2666,
      "!\"#\"\"&\"$\"\"#": 2667,
      "\"#\"$(*": 2668,
      "\"&\"$(*": 2669,
      "-.$+&\"+\"1\"$": 2670,
      "\"&\"0\"+&*": 2671,
      "-!\"#\"\"\"\"\"#*": 2672,
      "\"1\"$0\"9\"\"\"\"\"19*": 2673,
      "!-\"#\"\"\"$!(&": 2674,
      "!\"#\"$(": 2675,
      "()!$(*(!!!,$": 2676,
      "\"&\"\"$!$A*$A*A*\"\"$!$A*$A*A*": 2677,
      "\"$3*\"#": 2678,
      "!!$-*$": 2679,
      "\"9\"\"\"$A*\"\"9": 2680,
      "\"$-*\"\"&": 2681,
      ":*\"\"9": 2682,
      "!&)!$-*": 2683,
      "\"&\"\"\"$!D(*\"\"&*": 2684,
      "!#&!!1!!$!!$!1*!#*!&": 2685,
      "*(\"#\"\"\"\"\"#": 2686,
      ".$-*,$!*": 2687,
      "()!": 2688,
      "!!E": 2689,
      "!(!!-": 2690,
      "-)\"#\"\"": 2691,
      "+\"1\"\"\"\"\"&1*": 2692,
      "!#!": 2693,
      "\"#*!$)-*-": 2694,
      "(#!!($!": 2695,
      "!&!!!#": 2696,
      "+&+\"$%": 2697,
      "!$)-*\"#\"$-*": 2698,
      "(!$)-*,$!\"#\"+\"0#*": 2699,
      "-)!$(!!": 2700,
      "9*\"\"\"1": 2701,
      ",$!*!-*!$)-*": 2702,
      "\"9++": 2703,
      "!-!$)-*.#": 2704,
      "-.;": 2705,
      "!!$)-*(.#": 2706,
      "!\"#\"\"\"$!$)-*": 2707,
      "!)!!(#": 2708,
      "\"#\"+\"$(": 2709,
      "(\"#+\"\"$%": 2710,
      "-)F$-*$-*": 2711,
      "!!!!,#": 2712,
      "!!!#&": 2713,
      "\"&1*\"\"": 2714,
      "\"&\"\"\"\"\"&-": 2715,
      "!#$!*": 2716,
      "\"\"\"\"$": 2717,
      "+\"&)-*": 2718,
      "!!!!!-": 2719,
      "!!#!!!-#": 2720,
      "\"9\"\"\"$!$A*$A*A*\"\"": 2721,
      "!!\"&\"\"\"\"\"&!#": 2722,
      "!\"#\"\"\"'#": 2723,
      "!&1!!9!!$!!$!9*!&*!1*": 2724,
      "\"&\"\"$2*\"$": 2725,
      "-!!1": 2726,
      "!E$!*$!*": 2727,
      "\"&\"$(*+\"+": 2728,
      "(!$)-*!!": 2729,
      "\"#\"0\"&\"\"\"\"\"#&*": 2730,
      "\"&*\"+#": 2731,
      "-)!$-*\"#\"\"\"$": 2732,
      "\"&\"\"\"$2*\"$": 2733,
      "(#!!": 2734,
      "!!($!!*/$)-*$)-*": 2735,
      "\"1\"\"\"\"\"1&*!!#": 2736,
      "!-!$)-*!$": 2737,
      "$-*$)/*": 2738,
      "\"&\"\"$A*\"\"$A*": 2739,
      "\"#\"\"$!$A*$A*A*\"\"": 2740,
      "\"&\"\"\"$!$!*$!*!*": 2741,
      "!!61$!*!$)": 2742,
      "!!#$!*!!$)-*": 2743,
      "!6#&!!,1": 2744,
      "\"1+\"$(*": 2745,
      "8&#!": 2746,
      "\"9\"\"\"$-*\"\"9": 2747,
      "!$)-*,$!*": 2748,
      "\"#\"\"\"$3*": 2749,
      "!!$)-*(#!!!$": 2750,
      "-!-:*": 2751,
      "!$)-*4!$)!4": 2752,
      "!!!!(&": 2753,
      "1*\"\"\"#&": 2754,
      "\"\"\"&1*": 2755,
      "\"&\"\"\"\"$/$)-*$)-*(": 2756,
      "1*\"\"#&": 2757,
      "\"&\"\"\"$!$)-*-*\"\"&*": 2758,
      "!$-!$!*)-*": 2759,
      ")!$!D(*": 2760,
      "!\"#\"\"\"$!(!$)-*": 2761,
      "!\"#\"\"$)-*": 2762,
      "\"$!*\"$": 2763,
      "\"#\"\"\"\"$3*\"#": 2764,
      "A*\"$A*\"#": 2765,
      "\"#\"&\"$+": 2766,
      "F$-*$)/*": 2767,
      "\"1\"\"\"\"\"1-!*": 2768,
      "6$!*": 2769,
      "\"+&*\"#": 2770,
      "\"&\"\"\"\"\"&*!!#*": 2771,
      "\"#\"\"\"$!$)-*-*\"\"#": 2772,
      "\"+\"#&": 2773,
      "4!)(5": 2774,
      ">?>?": 2775,
      "\"1\"$A*\"\"\"\"1A*": 2776,
      "!$)(": 2777,
      "\"1\"\"\"$!*\"\"1": 2778,
      "!!(1!!-!!1*": 2779,
      "\"9\"$A*\"\"": 2780,
      "!\"#\"\"\"$%\"&\"\"\"\"\"&%": 2781,
      "!$)-*-!\"#\"\"\"\"\"#": 2782,
      "!!-!!-!!-": 2783,
      "4!$!*)!5": 2784,
      "\"1\"\"$-": 2785,
      "619": 2786,
      "-)E$B*\"#\"\"\"$": 2787,
      "\":\"9*": 2788,
      "\"&+\"$-*": 2789,
      "\"&\"\"\"$3*": 2790,
      "\"1\"\"\"$(!$)-*(": 2791,
      "\"&++0+&*\"\"#": 2792,
      "(\"#\"$": 2793,
      "\"&\"\"\"$%+1": 2794,
      "\"&*\"\"$": 2795,
      "(!$)-*.$!!$!*!*": 2796,
      "0\"$%": 2797,
      "9*\"\"#": 2798,
      "!4!)!$5!*": 2799,
      "\"&*\"\"\"#-": 2800,
      "/$(*$)-*)-*\"\"#": 2801,
      "\"1\"\"+\"\"": 2802,
      "!.$(!$)-*": 2803,
      "-.:": 2804,
      "!\"#\"7": 2805,
      "!-\"#\"\"$!$)-*(": 2806,
      "2*\"\"#&": 2807,
      "!$)-*(#!": 2808,
      "\"&)-*!!#": 2809,
      "!\"#+\"\"$": 2810,
      "+\"$(&": 2811,
      "!\"#\"\"$!$)-*(": 2812,
      "-!.#": 2813,
      "!\"#+\"$!*": 2814,
      "!-!$)-*\"#\"\"\"\"\"#": 2815,
      "\"&\"\"\"1\"$\"&*-!-": 2816,
      "+1*\"\"&": 2817,
      "(*\"#": 2818,
      "!$!*)-*\"\"#": 2819,
      "\"9\"\"\"$-*": 2820,
      "!!/$)-*$)-*!#": 2821,
      ".$-*.#-": 2822,
      "\"1\"\"\"\"$E$)-*B*": 2823,
      "!(1!!($": 2824,
      "(!$)-*,&": 2825,
      "\"&\"\"\"$/$!*$)-*)-*": 2826,
      "\"1\"\"\"\"\"1&*\"#": 2827,
      "!!#$!*-": 2828,
      "!!!!!!!!!!!!!!!!$)-*": 2829,
      "\"#\"\"\"\"$/$)-*$)-*(&": 2830,
      "!!!!!!-": 2831,
      "\"1\"$(": 2832,
      "!$)-*.$(!$)-*": 2833,
      "\"#\"\"\"$E$)-*B*": 2834,
      "\"#\"\"\"\"$!$)-*(": 2835,
      "!!$-!$)-*": 2836,
      "!*+#": 2837,
      "!$)-*!!$!*$!*": 2838,
      "\"1\"\"\"$-!": 2839,
      "4!)!#4": 2840,
      "\"\"$-": 2841,
      ",$!*-*": 2842,
      "\"&\"#!": 2843,
      "!!$)-*($!": 2844,
      "!+#\"$)-*\"&\"$": 2845,
      "\"&\"+$!*": 2846,
      "!&)-*!!#": 2847,
      "/!$)-*(": 2848,
      "($!*!$)-*,$": 2849,
      "!!!!!&*\"#": 2850,
      "+1\"\"+\"1*": 2851,
      "\"+&\"#": 2852,
      "2*\"+": 2853,
      "+1*\"\"&*": 2854,
      "!!4!)!$5!*": 2855,
      "!\"9\"\"\"\"\"9*": 2856,
      "!/$)-*$)-*-": 2857,
      "&*\"\"\"#-": 2858,
      "'&*!!#": 2859,
      "\"&-#": 2860,
      "B*\"\"#": 2861,
      "\"1\"+\"\"": 2862,
      "!-\"#\"\"\"$!$": 2863,
      "E$)-*B*\"\"\"#": 2864,
      ".$!-F$)-*$-*-": 2865,
      "!!$!*$!*\"#\"\"$": 2866,
      "!$(*)-*\"\"#": 2867,
      "\":+": 2868,
      "-\"#\"\"\"$%": 2869,
      "\"1\"\"'\"1*": 2870,
      "!!(#!!!!#": 2871,
      "!&!!!$": 2872,
      "\"$)-*\"\"": 2873,
      "-)!$!#": 2874,
      "+$!*\"$)-*": 2875,
      ">H>H>H>H": 2876,
      "\"#\"&\"\"\"\"\"&": 2877,
      "!\"#\"\"\"$(&": 2878,
      "$(": 2879,
      "!!!!!!$)-*(": 2880,
      "\"&+$": 2881,
      ".$!$)-*-*": 2882,
      "!$A*A*\"\"": 2883,
      "\"1\"&*\"#": 2884,
      "\":\"\"\"$A*\"\"": 2885,
      "!\"#+\"&\"\"\"\"\"&": 2886,
      "*!$)-*-": 2887,
      "=#B": 2888,
      "\"9*\"\"1*": 2889,
      "-)!$!+#": 2890,
      "\"&\"\"\"+\"&#": 2891,
      "!$)-*\"#\"\"\"\"\"#!&)-": 2892,
      "\"&\"\"\"\"$!$)-*-*": 2893,
      "!$)-*(&!!!!": 2894,
      "\"&\"\"\"\"$-*\"&*": 2895,
      "!(.$!*": 2896,
      "+\"$-": 2897,
      "+$.&": 2898,
      "+#\"+\"+#*": 2899,
      "+\"1\"\"\"\"\"&1*\"\"#": 2900,
      "!-!!": 2901,
      "*\"#\"\"\"\"\"#": 2902,
      "(\"#+\"&\"$": 2903,
      "\"&\"#\"\"#": 2904,
      "(\"#+\"\"": 2905,
      "!$)-*(.$!!/!*": 2906,
      "\"#+\"$-*": 2907,
      "\"&'\"1\"$": 2908,
      "4!)!$5!D(*": 2909,
      "!$2*$2*": 2910,
      "!6#&!!,1.$": 2911,
      "\"\"1\"$": 2912,
      "!)(": 2913,
      "\"#\"$2*": 2914,
      "-)!#-": 2915,
      "!$-*)!$": 2916,
      ")!*": 2917,
      "0\"#)-": 2918,
      "\"$A*\"1*": 2919,
      "!+&\"$": 2920,
      "\"#\"\"\"$2*\"$2*\"#*": 2921,
      "-.": 2922,
      "(!$)-*!/\"#+": 2923,
      "\"1\"\"\"\"\"1*\"\"&*\"\"#": 2924,
      "7\"#)-": 2925,
      "\"&\"$-!*": 2926,
      "\"9\"\"\"$3*\"\"": 2927,
      ",$-*.$!*": 2928,
      "\"&\"\"\"$-*\"\"&*\"\"#": 2929,
      "+&+\"$!*": 2930,
      "!\"#\"\"\"$!&": 2931,
      "+&\"$%": 2932,
      "\"&\"\"$3*": 2933,
      "\"&\"\"$-!*\"$-!*\"$-!*\"&*\"\"#": 2934,
      "!!!!&)-*": 2935,
      "\"1+\"\"$": 2936,
      "\"&\"\"1\"\"\"\"\"17": 2937,
      "\"G": 2938,
      "!\"9\"\"\"\"\"9": 2939,
      "\"&\"\"\"\"\"&!#)-": 2940,
      "\"#\"\"$!$A*$A*A*\"\"$!$A*$A*A*": 2941,
      "!\"#\"\"\"$!(&": 2942,
      "!$)-*(.$!\"#\"0\"+#*": 2943,
      "-)/$)-*$-*": 2944,
      "!/\"#\"\"\"$": 2945,
      "\"$!*\"1*": 2946,
      "!\"#\"\"\"+\"#*": 2947,
      "*(#!!": 2948,
      "!!$-*$!": 2949,
      "\"#+\"&\"\"\"\"\"&0#": 2950,
      "/!#": 2951,
      "\"1\"\"\"'": 2952,
      "\"#\"\"$-*\"$-*": 2953,
      "!!//": 2954,
      "(!!(": 2955,
      "\"&++": 2956,
      "\"901*": 2957,
      "\"$!-*": 2958,
      "!\"#\"\"\"&\"\"\"\"\"&\"#*": 2959,
      "(!$)-*.$(!$)-*.$": 2960,
      "(!$)-*,$!!(*": 2961,
      "!)!!$": 2962,
      "!!891!*": 2963,
      "!$)-*(.$!!!(!$)(*(*!$)-*(.$!!$!*!*": 2964,
      "\"9\"\"\"\"$2*\"9*": 2965,
      ";*\"\"": 2966,
      "\"$4!)!4": 2967,
      "!-\"#\"\"\"$4!)!&5": 2968,
      "81$-*": 2969,
      "!$)-*!$!*": 2970,
      "!$)-*($!!": 2971,
      "!!-!$)-*\"#'": 2972,
      "!!-!!&*\"#": 2973,
      "!$)-*!!": 2974,
      "+#*(": 2975,
      "4()!&5": 2976,
      "\"9\"\"$!*": 2977,
      "-!$!*)-": 2978,
      "!$)-*!-": 2979,
      "()!$\"&\"\"\"\"\"&*": 2980,
      "!!!($!!": 2981,
      "-,$!-*.$-*,$-*,1-*": 2982,
      "\"=$": 2983,
      "!!$!*-!$)-*": 2984,
      "\"$(!$)-*(": 2985,
      "\"1\"\"$(!$)-*": 2986,
      "\":\"\"\"$2*\"\"": 2987,
      "\"&\"\"$2*\"\"\"#&": 2988,
      "\"1+\"\"\"+1*": 2989,
      "+\"1+&": 2990,
      "!!#!($": 2991,
      "\"$)-*\"#&": 2992,
      "\"#\"\"\"$!*": 2993,
      "\"+1!*": 2994,
      "-!$!*": 2995,
      "!#*(&": 2996,
      "(#!!!!!#": 2997,
      "\"&\"\"\"17": 2998,
      "\"9\"0": 2999,
      "\"9\"\"\"$!*\"\"": 3000,
      "!\"#\"\"&\"$": 3001,
      "\"#\"+\"$%": 3002,
      ",$-*.$-*.#-": 3003,
      "\"1++\"$": 3004,
      "\"&\"\"$-!*\"$-!*\"$-!*\"&*": 3005,
      "\"9\"$!*": 3006,
      "\"9\"\"\"'9*": 3007,
      "!$)-*!$)-*(": 3008,
      "+7&*": 3009,
      "\"9+\":\"\"\"\"\":": 3010,
      "-!,&-.$": 3011,
      "!(#!!!!#": 3012,
      "+\"\"9": 3013,
      "\"#\"\"\"$(&!!($": 3014,
      "!$-!$)-*": 3015,
      "\"&\"\"\"$E$)-*B*": 3016,
      "!\"#\"\"\"\"$2*\"#": 3017,
      "!1)-*\"\"#": 3018,
      "!-\"#\"\"$-!*\"\"$": 3019,
      "\"1\"\"\"\"$3*\"1*": 3020,
      "!!!$(!$)-*": 3021,
      "-)!$(\"#\"\"\"$-": 3022,
      "!!-#": 3023,
      "!$)-*!-!$)-*": 3024,
      "\"1\"\"\"\"\"1\"&": 3025,
      "!.#!!,&": 3026,
      "!!,$(*": 3027,
      "*\"\"\"#-!": 3028,
      "\"&\"\"\"$A*\"\"&*+#": 3029,
      "!8#&": 3030,
      ".$-*,&-*": 3031,
      "\"\"&%": 3032,
      "\"&\"+\"+": 3033,
      "\"1+\"+\"$(": 3034,
      "++\"$": 3035,
      "++&*\"#": 3036,
      "!,$!-*": 3037,
      "+$\"&)-*": 3038,
      "!$)-*(#*": 3039,
      "!!#$-*": 3040,
      "!!$!*\"#\"\"\"$": 3041,
      "\"1\"\"\"$3*\"\"1": 3042,
      "!&!": 3043,
      "!\"#\"\"\"7#*": 3044,
      "\"1\"\"\"$E$)-*B*\"\"": 3045,
      "!-\"#\"\"\"$!": 3046,
      "!!$!-*": 3047,
      "!!)!*": 3048,
      "!$)-*(.$!\"&\"\"\"$-*\"\"&*": 3049,
      "\"9'": 3050,
      "-)\"#\"\"$%": 3051,
      "\"&0\"$%": 3052,
      "\"#\"\"\"&+\"$%": 3053,
      "\"&\"$!D(*": 3054,
      "\"&\"\"\"\"$!$)-*(": 3055,
      "\"%": 3056,
      "\"\"\"#%": 3057,
      "+\"1\"\"$": 3058,
      "!-\"#\"\"\"$A*\"\"#": 3059,
      ",$!*(": 3060,
      "(!$)-*.&!!!(&!$)-*,$": 3061,
      "\"9\"\":\"$": 3062,
      "\"&\"\"\"\"$3*\"&*": 3063,
      "\"1\"\"7\"1*": 3064,
      "(!!!(": 3065,
      "!.1-F$)-*$-*-!,1-.$": 3066,
      "\"9+\"\"\"\"9": 3067,
      "!\"&\"\"\"\"\"&*\"#": 3068,
      "!-F$)-*$": 3069,
      "!-\"#\"\"$(!$)-*": 3070,
      "!\"#\"\"\"$%\"&+": 3071,
      "!(#!$)-*.$": 3072,
      "\"+\"$(": 3073,
      "61$!*!!": 3074,
      "!!!+#\"\"": 3075,
      "\"#\"\"\"\"$!*\"#": 3076,
      "\"9\"\"\"\"\"9A*": 3077,
      "!$)-*(-": 3078,
      "\"1\"$\"#*": 3079,
      "!!&)-": 3080,
      "(&!!!!": 3081,
      "#*\"#\"\"\"\"\"#": 3082,
      "!!1*\"\"&#": 3083,
      "\"\"$!*\"#": 3084,
      "\"1\"\"\"$-!*\"$-!*\"1*": 3085,
      "(\"#\"\"$": 3086,
      "!!(1!!!!": 3087,
      "!&-*": 3088,
      "+\"$(!": 3089,
      "!!!\"#+": 3090,
      "(\"#+\"+\"&\"#": 3091,
      "!$)-*(1!!($": 3092,
      "!!-F$)-*$-!!*": 3093,
      "!!!6&$!*": 3094,
      "\"\"$%\"9\"+": 3095,
      "+$!&": 3096,
      "\"&\"\"\"\"\"&!$A*$A*A*": 3097,
      "!19": 3098,
      "+&*\"\"#-!": 3099,
      "/)!$(": 3100,
      "+:*": 3101,
      "!$\"#\"\"\"\"\"#*\"#\"\"\"\"\"#": 3102,
      "!!$)-*(,#": 3103,
      "!$)-*(.$!/*": 3104,
      "\"&\"+\"\"$": 3105,
      "-,$!-*.$-*,$-*,&-*": 3106,
      "!$)-*(!\"#\"\"\"$": 3107,
      "(!$)-*.$!*": 3108,
      "!!-!!&": 3109,
      "$A*\"#": 3110,
      "\"$!*+#": 3111,
      "\"&\"\"\"\"\"&-!*": 3112,
      "\"&\"#0": 3113,
      "-*-.$+": 3114,
      "*(#!!!!!#": 3115,
      "+\"1'": 3116,
      "\"&+\"\"'&*": 3117,
      "\"9\"\"\"\"\"9\"1": 3118,
      "!-\"#\"\"$.&\"1\"\"9\"$\"\"1": 3119,
      "\"9+\"+": 3120,
      "!!($!*!": 3121,
      "/$)-*$)-*\"#\"\"\"$2*\"\"#": 3122,
      "\"$(1!!($": 3123,
      "1*!#": 3124,
      "\"9\"\"\"\"$!$A*$A*A*": 3125,
      "+#\"\"+\"#": 3126,
      "!+#+\"$%": 3127,
      "!$)/*(&": 3128,
      "\"&*\"\"\"#": 3129,
      "!!$)-*-*\"\"#": 3130,
      "-)!$(\"#\"\"\"\"\"#": 3131,
      "\"\"&A*": 3132,
      "\"#5": 3133,
      "!-\"1\"\"\"\"\"1": 3134,
      "!!$)-*(1": 3135,
      "\"&\"$2*\"\"$": 3136,
      "\"&\"#\"\"#+$\"&)-*": 3137,
      "+\"&'#": 3138,
      "!!$(*)-": 3139,
      "8;": 3140,
      "\"$@*": 3141,
      "-!!$-*!(": 3142,
      "4!$!D(*)!4": 3143,
      "\"&\"\"\"1+\"$": 3144,
      "(#!": 3145,
      "+&\"$!*": 3146,
      ".#-,$!-": 3147,
      "+1%": 3148,
      "!$-*!$!*": 3149,
      "\"1\"\"\"\"$-": 3150,
      "\"&+\"+\"10": 3151,
      ",:-*": 3152,
      "4!)!$4!*": 3153,
      "0+1*": 3154,
      "61$": 3155,
      "!$!!$)-*-*": 3156,
      "\"\"\"$(": 3157,
      "!\"&\"\"\"$-!*": 3158,
      "\"&\"#-": 3159,
      "/$)-*$)-*\"&\"\"\"\"\"&*": 3160,
      "\"&\"\"$!$A*$A*A*": 3161,
      "!!$!*!.$": 3162,
      "!)!1": 3163,
      "!!,#-!$)-*,$!*.$-": 3164,
      "!-\"#+": 3165,
      "!!$)-*(.$!*": 3166,
      "1*+#": 3167,
      "$!)-*": 3168,
      "!!!)!$!*!*": 3169,
      "1*\"\"#-!": 3170,
      "!!($!!*!!": 3171,
      "/$)-*$)-*(!$)-*": 3172,
      "!\"#\"\"\"&7": 3173,
      "!$)-*(,$!$(*)-*": 3174,
      "($!!2*!!": 3175,
      "!-\"#\"\"\"$(&": 3176,
      "!1!!($": 3177,
      "!$)-*(,$!$)-*-*": 3178,
      "!$)-*(,&": 3179,
      "\"$(*+#": 3180,
      "\"&\"\"\"$2*\"\"&#": 3181,
      "\"&\"\"\"$!$A*$A*A*\"\"&": 3182,
      "-)!$(,#": 3183,
      "!!6&1!*": 3184,
      "4\"#": 3185,
      "\"&\"++$!*": 3186,
      "\"1\"\"\"$-!*\"\"1": 3187,
      "'9*": 3188,
      "\"#\"\"$3*": 3189,
      "\"1\"\"\"\"$!*\"1*": 3190,
      "-,$!-*.$-*,#-": 3191,
      "/&$)-*)-*": 3192,
      "$!!1*": 3193,
      "/!!$)-*": 3194,
      "\"9\"\"\"\"\"9*\"\"1": 3195,
      "$%\"1\"\"\"\"\"1*": 3196,
      "!($!*!!": 3197,
      "!&!!!!!&": 3198,
      "!$)-*(.$!\"#\"\"\"\"\"#*!$(*)-": 3199,
      "4()!$5!*": 3200,
      "\"1\"\"\"$-*\"$-*": 3201,
      "(D!4!$)!5": 3202,
      "($\"&\"\"\"\"\"&*": 3203,
      "\"$+&*%": 3204,
      "\"1\"\"$3*\"\"": 3205,
      "+$!\"1\"\"\"\"\"1*": 3206,
      ":*!1*": 3207,
      "(!$)-*!-!$)-*": 3208,
      "!,$-!*": 3209,
      "4!)!5!$)-*-": 3210,
      "\"&\"\"\"$-*\"$-*\"&*": 3211,
      "/4!$)!5": 3212,
      "!!(!!9*": 3213,
      "(D!\"#\"+": 3214,
      "!$)-*!$!*$!*": 3215,
      "\"9!*": 3216,
      "!!!\"#\"\"\"\"\"#": 3217,
      "-*\"#": 3218,
      "\"$!&": 3219,
      "\"#\"\"\"&\"\"\"\"\"&\"#*": 3220,
      "\":*\"\"": 3221,
      "!/!$": 3222,
      "!!&)-*\"\"#": 3223,
      "$\"#\"\"\"\"\"#*\"#\"\"\"\"\"#": 3224,
      "!$)-*(!$!*$!*": 3225,
      "!\"#\"\"\"$%\"&\"\"\"\"\"&": 3226,
      "\"&\"#\"\"#+$\"&)-*!": 3227,
      "!$!*)!#": 3228,
      "($!\"&\"\"\"\"\"&*": 3229,
      ",$!-": 3230,
      "\"1+&*\"#": 3231,
      "+\"10": 3232,
      "\"&-": 3233,
      "!\"#\"\"\"$E$)-*B*\"\"#": 3234,
      "\"&\"\"\"$-!*\"\"&": 3235,
      "\"#\"\"\"&+": 3236,
      "!!!!!(!$)-*": 3237,
      "!-\"#\"\"\"$!*\"\"#": 3238,
      "+&\"\"+\"&*": 3239,
      "+'": 3240,
      "\"1+0": 3241,
      "-)\"#0\"$)-*": 3242,
      "\"&\"\"\"$!(1": 3243,
      "\"&\"\"\"$!$)(*(": 3244,
      ".$-*!": 3245,
      "4!#)(5": 3246,
      "\"\"\"$!*": 3247,
      "(&*": 3248,
      "\"&(": 3249,
      "\"#\"'\"$%": 3250,
      ",;-*": 3251,
      "!\"#7+\"$%": 3252,
      "\"&\"\"$!$A*$A*A*\"\"$!$A*$A*A*\"&*": 3253,
      "$!*\"#-": 3254,
      "\"+\"&\"#": 3255,
      "!!-!$)-*!#)!$": 3256,
      "!,&#": 3257,
      "!!9*\"\"1": 3258,
      "1*\"\"$-!*\"#-!": 3259,
      "!!$!*.#": 3260,
      "\"1\"\"\"\"\"1*\"1\"\"\"\"\"1*": 3261,
      "(D!\"#\"\"\"\"$": 3262,
      "!#!!&": 3263,
      "\"1\"\"$!$)-*(": 3264,
      "\"&\"\"$-*\"\"$-*": 3265,
      "7\"$%": 3266,
      "!!!!$)-*-": 3267,
      "!!!(&!$)-*,$": 3268,
      "\"1\"\"\"$/$(*$)-*)-*": 3269,
      "$!\"#\"\"\"\"\"#*": 3270,
      "!\"#+0": 3271,
      "!.#!": 3272,
      "\"&\"\"'\"&*": 3273,
      "!!$/": 3274,
      "!$!-": 3275,
      "+&\"\"\"\"": 3276,
      "-!*\"$-!*\"#": 3277,
      "$!$)-*": 3278,
      "++\"&": 3279,
      "\"\"&\"$+#*": 3280,
      "\"&\"$2*\"\"\"\"&2*": 3281,
      ")-*(": 3282,
      "+71*": 3283,
      "\";\"\"\"\"\";*": 3284,
      "!!!\"#\"$": 3285,
      "\"#\"\"\"$2*\"\"#*(": 3286,
      "Y$!*$!*!$!*$!*!*": 3287,
      "@*\"\"#": 3288,
      "!$)-*.&": 3289,
      ",&#": 3290,
      "!1!!!1*": 3291,
      "+$!*\"9*": 3292,
      "\"#\"0\"+#": 3293,
      "!#!!!!#*": 3294,
      "!D!\"#\"\"\"$": 3295,
      "\"1++\"$%": 3296,
      "!!$!*(#": 3297,
      "!!&*\"#!": 3298,
      "%+#": 3299,
      "(!$!*)-": 3300,
      "+\"#%\"#\"\"\"\"\"#": 3301,
      "!!!!!*": 3302,
      "A*\"\"1": 3303,
      "!-\"#\"\"\"$(!$)-*(": 3304,
      "\"1+&*!!#": 3305,
      "!!1!!!!!1*": 3306,
      "\"&'\"\"\"&": 3307,
      "--9": 3308,
      "\"&\"\"$A*\"$": 3309,
      "-)!$!(!$)-*": 3310,
      "!1*\"#": 3311,
      "+\"+\"1&*,$-*.#-": 3312,
      "!\"#\"\"'\"#": 3313,
      "\"#\"\"\"$!$A*$A*A*\"\"#*": 3314,
      "\"#\"\"1": 3315,
      "!$!*-": 3316,
      "!-!$)-*!#)!$": 3317,
      "!!*\"#": 3318,
      "\"1+\"\"'1*": 3319,
      "\"1&*\"#": 3320,
      "4!$(*": 3321,
      "8#&!": 3322,
      "!#!!/$)-*$)-*!#": 3323,
      "\"1\"\"\"$!$A*$A*A*": 3324,
      "!($!!(!$)-*": 3325,
      "\"&\"$A*\"\"\"\"&A*": 3326,
      "\"9\"\"\"\"$A*\"9*": 3327,
      "0\"#": 3328,
      "!#\"#\"\"\"\"\"#": 3329,
      "!#!!!$": 3330,
      "\"#\"+\"$(&": 3331,
      "\"$!$)-*(!": 3332,
      "\"1\"\"\"$%\"9\"\"\"\"\"9*\"\"1*": 3333,
      "(!$)-*,$!\"#\"\"\"\"\"#*(!$)-*.$": 3334,
      "!!-!!9*\"\"1*": 3335,
      "!(&!!": 3336,
      "!,#!": 3337,
      "$!9!!9*": 3338,
      "\"#\"\"$2*\"\"$2*\"#": 3339,
      "4!$)!$4": 3340,
      "!($!*!!(!$)-*": 3341,
      "!!6#$!*": 3342,
      "!$)-*(!$)-*": 3343,
      "!&*\"+#": 3344,
      "\"&\"$!*\"\"$!*": 3345,
      "-)!$-*!$A*$A*A>": 3346,
      "\"1\"\"\"$%\"9\"\"\"$": 3347,
      "\"#\"\"\"$-*\"$-*\"#": 3348,
      "!!,$(!$)-*": 3349,
      "!-\"#\"\"\"$%\"&+\"$": 3350,
      "!+#\"\"+\"#": 3351,
      "\"1\"\"\"\"$-*\"1*": 3352,
      "!!!!(#!!($": 3353,
      "!!(#!!-!!#*": 3354,
      "\"#\"\"$3*\"\"": 3355,
      ".1&*": 3356,
      "\"\"\"19*": 3357,
      "\"9+\"$": 3358,
      "\"#\"\"\"$/": 3359,
      "!!-!#": 3360,
      "\"\"\"$(*+\"&)-*": 3361,
      "\"1\"\"\"$-!$A*$A*A*\"\"1*": 3362,
      "!!$!-": 3363,
      "(!$)-*.$(!$)-*": 3364,
      "8#1": 3365,
      "!.$-*,$": 3366,
      "\"&\"\"$-*\"\"\"&": 3367,
      "+\"&*\"#": 3368,
      "!$)-*(!!$(*)-*": 3369,
      ".#!!!(#!$)-*": 3370,
      ".1!": 3371,
      "!$)-*(,$!\"#\"\"\"\"\"#*": 3372,
      "0\"1\"\"\"\"\"&1*": 3373,
      ")((&": 3374,
      "\"$-!*\"#-!": 3375,
      "!$)-*(,$!$)-*(.$!!$!*!*": 3376,
      "\"$2*\"#*": 3377,
      "\"9\"\"\"\"\"19*\"\"": 3378,
      "E$!*$!*!": 3379,
      "\"9*\"\"1": 3380,
      "!!#)-*": 3381,
      "\"#\"$2*\"\"\"\"#2": 3382,
      "\"$!-": 3383,
      "!$)-*(#!!!.#": 3384,
      "\"1\"\"\"9\"$\"1*-!!-9*": 3385,
      "!!\"#\"$!*": 3386,
      ".$-!": 3387,
      "(D!\"#": 3388,
      "+\"$-!*": 3389,
      "-)!$(!\"#\"\"\"\"\"#*": 3390,
      "!$)-*($!!*": 3391,
      "!!#$!*!!": 3392,
      "\"$)-*+#%": 3393,
      "(\"#+\"$-*": 3394,
      "!!!!-!$)-*": 3395,
      "\"&\"\"\"$-!!": 3396,
      "!!$!*$!*-!$)-*": 3397,
      "\"&+\"\"\"$%": 3398,
      "!$)-*\"&\"\"\"\"\"&!#)-": 3399,
      "(!$)-*,$!!$!*!*(!$)-*,$!!$!*!*": 3400,
      "!!\"#\"\"&\"$\"\"#": 3401,
      "\"&+\"1\"\"\"\"\"10&*": 3402,
      "\"$($!*!*": 3403,
      "+&+\"\"": 3404,
      "\"$-!*\"1*": 3405,
      "+\"9*": 3406,
      "$!&*": 3407,
      "!-!$)-*(,$": 3408,
      "\"#\"\"$2*\"\"\"#-": 3409,
      "!!&!!!-&*": 3410,
      "/$)-*$)-*($!*": 3411,
      "!\"#++$%\"&\"\"\"\"\"&*": 3412,
      "!\"#\"$A*\"\"": 3413,
      "\"1+\"9\"\"\"\"\"901*": 3414,
      "\"+$": 3415,
      "\"#\"\"'\"#": 3416,
      "Z)E": 3417,
      "\"#\"\"\"\"\"#*!&": 3418,
      "!(#!": 3419,
      "(!*": 3420,
      "+\"$/!!$)-*(": 3421,
      "!(&!!-!!&*": 3422,
      "+9!*": 3423,
      "\"&+\"1\"\"\"\"\"1+&": 3424,
      "!!-\"#\"\"\"$(": 3425,
      "\"&\"$-*\"\"\"\"&": 3426,
      "!!\"#\"\"\"$(!$)-*": 3427,
      "!$)-*-!$!*!*": 3428,
      "!!*\"\"": 3429,
      "!-\"#\"\"$4!)!&5": 3430,
      "\"&\"\"#-!!!(#": 3431,
      "-)!$!\"#\"\"\"\"\"#*(": 3432,
      "+&*\"+#": 3433,
      "\"9\"$-*": 3434,
      "!!$!*($": 3435,
      "!\"#\"\"\"$%\"&\"\"\"\"\"&%\"&++0+&*\"\"#": 3436,
      ",&!8$!*$-!*": 3437,
      "\"9\"$A*\"\"\"\"9": 3438,
      ":!!-!!:*": 3439,
      "!&!!&*\"\"#": 3440,
      "\"1\"$\"&\"#*": 3441,
      "!(&!!!#": 3442,
      ".$!*-*.$!*-*": 3443,
      "(!$)-*.#!!!(#!$)-*": 3444,
      "$!1!!1*": 3445,
      "\"&\"\"\"$!": 3446,
      "\"&\"\"\"$!(": 3447,
      "!$)-*(#!\"&\"\"\"\"\"&": 3448,
      "!\"#++$": 3449,
      "\"&\"\"#!": 3450,
      "!#)!": 3451,
      "\"#\"\"\"\"$E$)-*B*": 3452,
      ",$!*-": 3453,
      "\"9\"\"\"$(:": 3454,
      "!\"#\"\"\"\"$!": 3455,
      "0&*\"#": 3456,
      "!!-!$)-*!#)!$!*": 3457,
      ",&-*\"\"#": 3458,
      ".#-!$!*)-": 3459,
      "!!-\"#\"\"\"$(!$)-*": 3460,
      "\"1\"$)-*0": 3461,
      "\"#\"\"\"$-!*": 3462,
      "\"1\"\"+\"$(": 3463,
      "!!#!": 3464,
      "!\"#\"\"\"&\"$\"#*-!-&": 3465,
      "\"&++\"$/!!$)-*(": 3466,
      "81$!*!!": 3467,
      "+7#*": 3468,
      ",$!*.$-*6#$!*-": 3469,
      "09*": 3470,
      "!!\"9\"\"\"\"\"9": 3471,
      "!!($!\"#\"\"\"\"\"#*": 3472,
      "\"1\"\"\"\"\"1#*": 3473,
      "-!.$-*,$-*": 3474,
      "1*\"\"\"&+#": 3475,
      "\"&\"\"\"\"\"&(#": 3476,
      "\"#*!&": 3477,
      "!&!!($/$)-*$)-*": 3478,
      ",$-*!(": 3479,
      "(!$)-*.$(*!\"#\"\"\"$-*\"\"#*": 3480,
      "!!\"&\"$'": 3481,
      "\"$/!!$)-*(": 3482,
      ".$!$!*!*": 3483,
      "\"&1*!#)-": 3484,
      "!$)-*(.$!!!(!$)(*(*!$)-*(.$!*": 3485,
      "!!,&.1": 3486,
      "!!.#&": 3487,
      "/!#)/": 3488,
      "!,$-!$!*)-*": 3489,
      "++#!": 3490,
      "!\"#\"\"$!*\"$": 3491,
      "!$)-*(#!!": 3492,
      "\"1\"\"\"$A*\"$2*\"1*": 3493,
      "!!&*+\"#": 3494,
      "\"&\"1\"#-": 3495,
      "\"1\"\"\"\"\"&1*!!#": 3496,
      "!(,$": 3497,
      "!-\"#\"\"\"$4!)!4!$)-*": 3498,
      "+\"$!$A*$A*A*": 3499,
      "+1+\"$%": 3500,
      "!$!\"#\"\"\"\"\"#*": 3501,
      "!!$)-*-!*": 3502,
      "-)!$!!#": 3503,
      "\"#\"\"$-!*\"$-!*": 3504,
      "\"1\"\"\"$A*\"$A*": 3505,
      "(&!": 3506,
      "!/\"&+": 3507,
      "!/$)-*$)-*\"#\"\"\"$%": 3508,
      "@*\"\"": 3509,
      "++&1*\"\"#": 3510,
      "+\"$%\"1\"\"\"\"\"1*": 3511,
      "!\"#\"\"\"'#*": 3512,
      "\"&\"+\"0&*": 3513,
      "!!1)-*": 3514,
      "!,$-*.$!-*": 3515,
      "\"#\"+\"\"+#": 3516,
      "!.#-.$": 3517,
      "(D!\"#\"\"\"$%": 3518,
      "!$/": 3519,
      "\"&\"\"\"$2*\"\"&*+#": 3520,
      "+1\"\"+\"1": 3521,
      "\"9\"\"\"$-*\"\"9*": 3522,
      "(!$)-*.1": 3523,
      "$!\"1\"\"\"\"\"1*": 3524,
      "\"#\"\"\"&\"$)-*": 3525,
      ",1!-!$)-*": 3526,
      "1*\"\"&\"#": 3527,
      "(!$)-*,$!!$!*!*(!$)-*.$": 3528,
      "!($!\"&\"\"\"\"\"&*": 3529,
      "-!!&": 3530,
      "!!$!*(!$)-*": 3531,
      "\"\"&*+#": 3532,
      "!$)-*(,$!-*": 3533,
      "()!$(*\"#\"\"\"$": 3534,
      "!!!\"&\"\"\"\"\"&#": 3535,
      "$!!!!": 3536,
      "!!!!.$": 3537,
      "%1*": 3538,
      "\"#+\"+\"&\"#+\"+&": 3539,
      "&*\"#)-": 3540,
      "!\"#\"\"\"$3*\"\"#": 3541,
      ",&-!$)-*": 3542,
      "!1!!($!": 3543,
      "!!1!!!-1*": 3544,
      "\"9\"\"\"\"\"9*\"1*": 3545,
      "-)\"#\"$": 3546,
      "-)!$(\"#\"\"\"\"\"#*": 3547,
      "!)!!+#": 3548,
      "]$!*": 3549,
      "\"1&": 3550,
      "\"$)-*+$%\"&\"\"\"\"\"&*+#": 3551,
      "!$)(*(*\"\"": 3552,
      "^*": 3553,
      "!!($!!*!!(!$)-*": 3554,
      "!!!$!*!*": 3555,
      "\"&+\"$(1!!-!!1*": 3556,
      "\"1\"\"+\"\"1": 3557,
      "\"$2*\"\"&": 3558,
      "2*(": 3559,
      "!\"&\"\"\"$-": 3560,
      "A\"#\"\"\"$%": 3561,
      "\"$)-*\"\"$": 3562,
      "\"1\"$\"&*": 3563,
      "-)!#(!$)-*!$": 3564,
      ")!$!*!": 3565,
      "\"&!$)-*": 3566,
      "\"97": 3567,
      "\"1\"\"\"$!9": 3568,
      "!!!1*\"\"#": 3569,
      "$A*$A*A": 3570,
      "!6#&!!.1": 3571,
      "-!,#-.$+&\"+\"1\"$": 3572,
      "-)!$!(#!$)-*": 3573,
      "\"9\"\"\"\"\"92*": 3574,
      "(D!!#": 3575,
      "(!$)-*,$!!!(!$)(*(*(!$)-*,$!!!(!$)(*(*": 3576,
      "!1$!*!": 3577,
      "+\"1\"&*\"#": 3578,
      "%\"#\"$": 3579,
      "\"&-!*": 3580,
      "\"1\"\"\"\"\"1-*": 3581,
      "\":\"\"\"+": 3582,
      "Z)E)(": 3583,
      "(!!-": 3584,
      "!!!$)-*(&": 3585,
      "\"&\"\"\"$2*\"\"#&": 3586,
      "!!!\"&\"\"\"\"\"&*": 3587,
      "(&!!($!": 3588,
      "4!$!*)!4!": 3589,
      "\"#\"\"\"$!": 3590,
      "\"9\"\"\"$-!*": 3591,
      "\"#\"\"$/$)-*$)-*(&": 3592,
      "-,$!$)-*-*": 3593,
      "\"$+#*": 3594,
      "\"1\"\"\"\"\"1+&*\"\"#": 3595,
      "\"&\"\"\"$!$A*$A*A*": 3596,
      "!!!!(#!$)-*": 3597,
      "!&!!1!!$!": 3598,
      "\"+\"1": 3599,
      "!!#)!": 3600,
      ",#-!$)-*": 3601,
      "+$!*\"#": 3602,
      "\"10&*": 3603,
      ">-)!$-*4!)!4!$)-*-": 3604,
      "($!$!*)-*": 3605,
      "\"&\"\"$2*\"\"\"&#": 3606,
      ",&!!.#": 3607,
      ":!*": 3608,
      "!!!D": 3609,
      "\"$!*\"#%": 3610,
      "\"9\"\"\"$!*": 3611,
      ",1!": 3612,
      "!!1*\"\"&*\"\"#": 3613,
      "!&!!1!!$!&*!!#": 3614,
      "!-\"#\"\"\"$(&!!($": 3615,
      "\"&1*!#": 3616,
      "\"&*\"\"#*": 3617,
      "\"#+\"\"'#*": 3618,
      "!#$\"&\"\"\"\"\"&*": 3619,
      "\"#\"\"+\"$(": 3620,
      "!!#-": 3621,
      "\"&\"\"\"$!$!*!*": 3622,
      "-!!9": 3623,
      "\"9\"\":\"$\"\"9": 3624,
      "++1!*": 3625,
      "!-\"#\"\"\"\"$!(!$)-*": 3626,
      "(!$)-*,$!!!!(*(!$)-*,$!!!!(*": 3627,
      "*($!*": 3628,
      "!-\"#\"\"\"$,&": 3629,
      "\"1\"\"\"\"\"1*\"&*": 3630,
      "!!1!!$": 3631,
      "\"$(*\"#": 3632,
      "!$!*$-*": 3633,
      "-)!$\"#\"\"\"\"\"#*": 3634,
      "\"$)-*+$%\"&\"\"\"\"\"&*+#!": 3635,
      "$/$)-*$)-*": 3636,
      "!-1*": 3637,
      "A*!#": 3638,
      ")((#": 3639,
      "!\"#\"\"\"\"$-": 3640,
      "!!9!!9*": 3641,
      "!!.#.&": 3642,
      "6$!*$-*!.$!*": 3643,
      "4!)!4\"&\"\"\"\"\"&*": 3644,
      "!$)-*(#!!!!#": 3645,
      "4!$)(4(": 3646,
      "\"&7\"#)-": 3647,
      "\"&+\"1\"\"\"\"\"1'&*": 3648,
      "(!$)-*-!$!*$!*!": 3649,
      "+#*\"#\"\"\"\"\"#": 3650,
      "\"#+\"$2*": 3651,
      "(\"#+\"\"$": 3652,
      "!$)-*(.$!!!(!$)(*(*!$)-*(.$!!!!(*": 3653,
      "\"$)-*\"$!$)-*-*\"+1": 3654,
      "!\"#\"$2*\"\"\"\"#": 3655,
      "!$)!#": 3656,
      "!-\"#\"\"\"\"$(": 3657,
      "\"$-!*\"#-!*": 3658,
      "!-\"#\"\"\"$!+&": 3659,
      "-!-9": 3660,
      "\"\"\"#&*": 3661,
      "!!-&": 3662,
      "!!!.1": 3663,
      "A*\"\"#&": 3664,
      "\"&+\"+1": 3665,
      "\"\"\"+\"#&": 3666,
      "\"1\"\"$-!*\"\"\"1": 3667,
      "\"1\"\"\"\"$E$)-*B*\"1*": 3668,
      "+\"$(1!!-!!1*": 3669,
      "\"9\"\"\":\"\"\"\"\":": 3670,
      "!-!$)-*\"#'": 3671,
      "819": 3672,
      "!-\"#\"\"\"$!!(": 3673,
      ",$-*,$!*": 3674,
      "!$!*$!*!*\"#": 3675,
      "6#1": 3676,
      "\"1\"\"$!*\"\"\"1": 3677,
      "!$\"&\"\"\"$2*\"\"&*": 3678,
      "\"$2*\"9*": 3679,
      "!-\"#\"\"\"\"\"#!(!$)-*": 3680,
      "\"&'\"$%": 3681,
      "(!1)-*": 3682,
      "!!4!)!5": 3683,
      "\"1\"$-!*": 3684,
      "\"9\"\"7": 3685,
      "!-\"#\"\"\"\"$(!$)-*": 3686,
      "!!!(&!!($": 3687,
      "\"1\"\"\"\"9\"1": 3688,
      "!#$-*": 3689,
      "+&!*\"\"#": 3690,
      "!!!!!4!)!5": 3691,
      "!$)-*(!!$)-*(.$!\"#\"\"\"$-*\"\"#*": 3692,
      "!!/$)-*$)-*(": 3693,
      ".$!&*": 3694,
      "!!!\"#\"\"\"\"\"#*": 3695,
      "\"1\"\"\"$%\"9\"+": 3696,
      "!!$!*!,$(!$)-*": 3697,
      "!$)!": 3698,
      "!$)-*-!\"&\"#\"\"#+$\"&)-*!": 3699,
      "!$)/*/": 3700,
      "\"1\"\"\"\"$!D(*": 3701,
      "\"\"19*": 3702,
      "(D!\"#\"\"\"\"\"#": 3703,
      "(!$)-*,#!!!(#": 3704,
      "!$)-*,&": 3705,
      "\"&\"\"\"$(/$)-*$)-*": 3706,
      "\"&\"\"\"\"$2*\"&*!!#": 3707,
      "!\"#\"\"\"$(!$)-*(": 3708,
      "!-*\"\"#": 3709,
      "\"&\"\"\"\"$(": 3710,
      "-*\"\"\"#-": 3711,
      "\"&\"\"\"$-!*\"$-!*\"&*": 3712,
      "!!\"#\"\"\"\"$": 3713,
      "!!&1": 3714,
      "\"&!*\"#": 3715,
      "\"&-*\"\"#": 3716,
      "!!!#)": 3717,
      "!.&#": 3718,
      "\"&\"\"\"$/$)-*$)-*(1!!!!": 3719,
      "\"&\"\"\"1\"$\"&*-!!-1*": 3720,
      "(.#": 3721,
      "E&": 3722,
      "(&!!!!&*": 3723,
      "\"$-*\"\"#": 3724,
      "!-!!+#": 3725,
      "!$)-*-#*": 3726,
      "!$!$)-*-*)!$": 3727,
      "+\"$/!": 3728,
      ",1-": 3729,
      "!(&!!!!": 3730,
      "!!($!*!!&*\"\"#": 3731,
      "\"&\"$!*\"\"\"\"&": 3732,
      "-\"#\"\"$": 3733,
      "!/$)-*$)-*(#": 3734,
      "\"#\"\"\"&0\"$%": 3735,
      ".#!6#$": 3736,
      "\"&\"\"$2*\"\"$2*\"&*": 3737,
      "!\"#\"\"\"\"\"#2": 3738,
      "!-\"#\"\"\"\"$!$)-*(": 3739,
      "\"&\"\"$!$)-*-*": 3740,
      ".1-,$!-*.$-*,$-*,1-*": 3741,
      "\"1\"+\"$(": 3742,
      "!!!$)-*($": 3743,
      "(!$)-*-!\"#\"\"\"\"\"#": 3744,
      "-\"#\"\"": 3745,
      "\"&\"\"\"\"$!*\"&*": 3746,
      "+\"$!$)-*(": 3747,
      "\"#++": 3748,
      "!\"#+\"\"": 3749,
      "(1!!!!!1*": 3750,
      "!-\"#\"\"&\"$(": 3751,
      "-)!#(\"&\"\"\"\"\"&": 3752,
      "!!$!*$!*-!$)-*(": 3753,
      ",&1*": 3754,
      "!&*+\"#": 3755,
      "!,#!!,$": 3756,
      "!&!!$": 3757,
      ".#&*": 3758,
      "(!$)-*,$!/*": 3759,
      "+\"$%\"&\"\"\"\"\"&*": 3760,
      "*(#!!($!": 3761,
      "\"&\"\"$2*\"$2*\"\"&": 3762,
      "-!,$": 3763,
      "!($!*!$)-*(": 3764,
      "\"1\"\"\"$A*\"\"1*!!&*": 3765,
      "!$!/": 3766,
      "\"9\"\"$%": 3767,
      "$A*\"#*": 3768,
      "!\"#\"+&": 3769,
      "+\"\"&\"#": 3770,
      "-.1-": 3771,
      "\"#\"\"\"\"$-!": 3772,
      "!+#\"&\"\"\"\"\"&": 3773,
      "(D!\"#\"\"$": 3774,
      "!(\"#+\"$(": 3775,
      "\"1\"++$!*": 3776,
      "-!1)-*": 3777,
      "-)!$!(": 3778,
      "!!!(1!!!!": 3779,
      "!\"#\"+$%": 3780,
      "\"&\"$(*+\"+\"&#": 3781,
      "!&$!*": 3782,
      "!!($!!-*": 3783,
      "!-\"#\"\"\"$3*\"\"#": 3784,
      "*\"\"$-!*\"#": 3785,
      "\"$!*+": 3786,
      "!$)-*(&!!-!!&*": 3787,
      "!!6&$!$)-*-*": 3788,
      "\"&\"\"\"\"\"&E$)-*B*": 3789,
      ")!$4!": 3790,
      "!!!.$!*": 3791,
      "\"#\"\"\"$-*\"$-*\"#*": 3792,
      "!$)-*!1": 3793,
      "\"#\"\"$A*": 3794,
      "(!$)-*,$!!/!*": 3795,
      "!)!!$!": 3796,
      "!!(#!!!!!#": 3797,
      "\"$!$!*!*": 3798,
      "\"#\"\"$)-*7": 3799,
      "!\"#\"\"\"$!(": 3800,
      "\"#\"+$!*": 3801,
      ":*\"\"1": 3802,
      "\"9\"\"\"$-*\":\"9": 3803,
      "\"\"&+#": 3804,
      "A*\"\"#A": 3805,
      "\"#\"\"\"&\"$%": 3806,
      "\"J": 3807,
      ",1,$": 3808,
      "!!$)-*(#!!": 3809,
      "!!6&1": 3810,
      ",C": 3811,
      "!$-!*": 3812,
      "\"$!$A*$A*A*\"#": 3813,
      "!!-!$)-*(#!!($!$)-*": 3814,
      "\"&\"\"\"+\"&*\"#": 3815,
      "()!$(*(#": 3816,
      "!$)-*(.$!\"#\"\"\"\"\"#*!$)-*-": 3817,
      "-)!#\"&\"\"\"\"\"&!$)-*(#": 3818,
      "\"#-!*": 3819,
      "+\"#&*": 3820,
      "!!-!!9*\"\"": 3821,
      "!!61$!*!$)!!.98:": 3822,
      "!!-!$)-*4!)!4": 3823,
      "'\"&+#": 3824,
      "!!($!$)-*(": 3825,
      "!$A*A": 3826,
      "!($!*!!(": 3827,
      "!.$(": 3828,
      "\"#\"\"\"&\"$\"#*!$)-*": 3829,
      "\"&\"'\"$%": 3830,
      "-)!#(!$)-*4!$)!4": 3831,
      "$!$!*!*": 3832,
      ")(-#": 3833,
      "!(!$)-*.$": 3834,
      "\"&+\"\"+\"&": 3835,
      "\"1\"\"\"\"$-!*\"1*": 3836,
      "\"1\"9\"\"\"\"\"9": 3837,
      "\"'&*\"#": 3838,
      "!$)-*(.$!*!$)-*(.$!*": 3839,
      "!!($!*!!9*": 3840,
      "\"9\"\"\"$!*\"\"9*": 3841,
      "!$)-*(-*\"\"#": 3842,
      "\"++&%": 3843,
      "!!#!!($!$)-*": 3844,
      "/$)-*$)-*\"#\"\"\"$!*\"\"#": 3845,
      "+\"+\"&#": 3846,
      "-!$!*)-*,&": 3847,
      "!$)-*\"&\"\"\"\"\"&*": 3848,
      "\"1\"\"#": 3849,
      "!+#\"&\"$": 3850,
      "!!!$!*$": 3851,
      "\"#\"\"\"$-.&": 3852,
      "+1\"+\"+1*": 3853,
      "!!!(:": 3854,
      "!!(&!!!$": 3855,
      "!-\"#\"\"\"\"\"#!$)-*(": 3856,
      "!$)(*(*\"\"#": 3857,
      "\"<\"\"\"\"": 3858,
      "!D(*\"\"&": 3859,
      "\"&\"\"\"\"\"&A*!!#": 3860,
      "!!,#-!$)-*,$!*.$-,&!8$!*$-!*": 3861,
      "!&$-*": 3862,
      "\"&\"\"$%\"1\"\"\"$": 3863,
      "\"#\"\"\"$4!)!4": 3864,
      "!-!!($": 3865,
      "\"1\"\"\"\"\"1*(": 3866,
      ".#!-": 3867,
      "!-\"#\"\"\"$/$)-*$)-*": 3868,
      "!&*(1": 3869,
      "!-\"#\"\"\"\"\"#(!$)-*": 3870,
      "$-!*\"#-!": 3871,
      "-,$!-*.$-": 3872,
      "!!:!!$!!$!": 3873,
      "!!\"#+\"$": 3874,
      "\"+$!*": 3875,
      "\"1\"\"$!$A*$A*A*\"\"": 3876,
      "0\"&\"\"\"\"\"#&": 3877,
      "!!-!$)-*!#)!$!*(": 3878,
      "!$!*(": 3879,
      "\"$A*\"&*!$)-*-#": 3880,
      "!!!&!1": 3881,
      "4\"$)(5": 3882,
      "\"#\"\"\"$%\"&+\"$": 3883,
      "!$)-*\"&\"\"\"\"\"&#": 3884,
      "!-&*": 3885,
      "+\"&1*\"\"#": 3886,
      "!&)(/$)-*$)-*": 3887,
      "!,:": 3888,
      "!\"#\"\"\"&+\"$": 3889,
      ",1!!,$": 3890,
      "($!!*": 3891,
      "!$!$)-*-!*": 3892,
      "\"$(&!!($": 3893,
      "!!$)-*(!!": 3894,
      "!$)-*(.$!!!$(*)-*!$)-*(.$!-*": 3895,
      "-*!$-*": 3896,
      "(!$)-*($": 3897,
      "\";*": 3898,
      "!-\"#\"+": 3899,
      "!-\"#\"\"$!$)-*": 3900,
      "\"1+\"9\"$": 3901,
      "\"&\"\"$!*\"\"\"&": 3902,
      ",$!$!*!*": 3903,
      "4!)!4\"#\"\"\"\"\"#": 3904,
      "\"\"\"$-": 3905,
      "!)!.#!6#$": 3906,
      "F$": 3907,
      "++\"&%": 3908,
      "(\"#+\"\"\"$%": 3909,
      "\"&\"$-*\"\"$-*": 3910,
      "\"#\"\"&\"$(": 3911,
      "!\"#++$%": 3912,
      ">-)!$-*4!)!5!$)-*-": 3913,
      ".$!*!!*.$!*!!*": 3914,
      "-)!$\"#\"\"": 3915,
      "+\"19*": 3916,
      "\"1\"&*!!#": 3917,
      "\"&\"\"\"\"$!D(*": 3918,
      "!\"#\"\"\"$-*": 3919,
      "!-!$)-*\"#\"$": 3920,
      "\"$/$)-*$)-*": 3921,
      "-!*\"#-": 3922,
      "-!!-*": 3923,
      "!,#-.$": 3924,
      "\"&\"\"\"\"$2*\"&*\"\"#": 3925,
      "*($!$)-*": 3926,
      "\"&\"\"\"1\"$\"&*-!-1*\"\"#": 3927,
      "!$)-*(.$!\"#\"\"\"\"\"#*!$)-*(.$!!!$)-*-*": 3928,
      "\"&\"\"\"\"1\"\"\"\"$": 3929,
      "/!$)/*($": 3930,
      "!!:!!$!!$!:*!1*": 3931,
      "\"$%\"1\"\"\"$A*\"\"1*": 3932,
      "!)!!(!$)-*": 3933,
      "\"10&*\"\"#": 3934,
      "+\"9)-*": 3935,
      "\"&\"\"\"\"$-!*\"&*": 3936,
      "\"&\"\"\"$!1": 3937,
      "!&!!!(&": 3938,
      "!($!$)-*(": 3939,
      "\"&\"\"\"\"$2*\"&2*": 3940,
      "+&\"\"\"$)-*0\"&)-*": 3941,
      "0\"$)/*": 3942,
      "\"&\"+#": 3943,
      "!-\"#\"$!*": 3944,
      "!,#&": 3945,
      "($!*/$!*$)-*)-*": 3946,
      "8$!*$!-*": 3947,
      "-)!$!-\"#\"\"\"\"\"#": 3948,
      "\"\"&!*": 3949,
      "\"9\"\"\":": 3950,
      "(9!!-!!9*": 3951,
      "\"#\"\"\"$!-": 3952,
      "\"#\"\"\"\"$/$)-*$)-*(": 3953,
      "!1!!-!!1*": 3954,
      "\"&\"\"\"\"\"&3*": 3955,
      "+&+\"\"1": 3956,
      "\"#\"++&": 3957,
      "(!!!!,$": 3958,
      "\"&!D(*": 3959,
      "!!!!(1": 3960,
      "!&!!-!!&*": 3961,
      "!(#!!!&$!!#*": 3962,
      "!!#!!!-#*": 3963,
      "\"$)(*": 3964,
      "++\"#&": 3965,
      "\"1\"&\"#": 3966,
      "!!!!!!!$)-*(": 3967,
      "!!$)-*(!$": 3968,
      "!$)-*-*(&": 3969,
      "++&*!!#": 3970,
      "(/$)-*$)-*\"#\"\"\"$%": 3971,
      "!!,1.9": 3972,
      "(!$)-*.#!!!(#!$)-*.$(*": 3973,
      "\"&\"\"$-!*\"$-!*\"\"&": 3974,
      "F$)-*$-*-F$)-*$-*-": 3975,
      "\"&+\"$(*+\"$(*": 3976,
      "!$)-*(.$!$!*!*": 3977,
      ":*!!9*": 3978,
      "\"&\"\"\"\"$-!": 3979,
      "!!#*\"#\"\"\"\"\"#": 3980,
      "(/$)-*$)-*\"#\"\"\"$(": 3981,
      "!$)-*,$.$!*-*": 3982,
      "\"1\"\"\"$%\"9+": 3983,
      "+&\"\"+\"&*\"\"#": 3984,
      "8&1--9": 3985,
      "-!$!*!*": 3986,
      "!!$)-*(\"#\"\"\"\"\"#": 3987,
      "\"#\"\"\"$-!*\"\"#*": 3988,
      "\"&+\"1\"\"\"\"\"1+\"&": 3989,
      "\"1\"\"$2*\"\"$2*": 3990,
      "\"1\"#": 3991,
      "\"9\"\"\"\"+": 3992,
      "!!$)-*-!,#-.$": 3993,
      "\"1+\"$%\"9\"\"\"\"\"9*": 3994,
      "\"#\"\"$A*\"\"\"#": 3995,
      "\"$)-*0\"$(*+\":9*": 3996,
      "+#\"+\"+#*\"#\"\"\"$A*\"\"#A": 3997,
      "(!!!": 3998,
      "4!$)!$5": 3999,
      "\"#\"\"&0": 4000,
      "\"&\"\"\"$-!$A*$A*A*\"\"&*": 4001,
      "2*!!#": 4002,
      "\"9\"\"\"\"\"&9*": 4003,
      "+\"\"#&": 4004,
      "!-\"#\"\"\"\"$!": 4005,
      "\"$)-*+$%": 4006,
      ",$-*,$": 4007,
      "!!!!!!!!4!)!5": 4008,
      "!!8&$-*": 4009,
      "!$!*)!": 4010,
      "(!$)-*.$(*!!$)-*-*": 4011,
      "!!8#$-*": 4012,
      "!$(*)-*!$!*!*!$!*!": 4013,
      "!-!$!*$!*": 4014,
      "-)!$(.$": 4015,
      "/$!*$)-*)-*\"\"1*": 4016,
      "!$)-*6&$!*": 4017,
      "\"1*\"\"#&": 4018,
      ",$!*!$)-*": 4019,
      "!$(*)-*\"#": 4020,
      "(!$)-*,$!*(!$)-*,$!*": 4021,
      "\"&+\"\"\"\"&\"#": 4022,
      "!\"&+": 4023,
      "-!*($!*": 4024,
      "\"\"1!*": 4025,
      "/\"#\"\"\"\"\"#": 4026,
      "!/\"&++\"$%": 4027,
      "!+#\"\"\"\"#": 4028,
      "!1*\"\"&*\"\"#": 4029,
      "\"&\"\"+\"\"&*\"#": 4030,
      "\"&\"\"&": 4031,
      "!!#-!$": 4032,
      "!\"#\"\"\"$/": 4033,
      ".9!!81$!*": 4034,
      "\"9\"\"$-!*\"$-!*": 4035,
      ",$-*,$-*,#-": 4036,
      ")(4!": 4037,
      "\"1\"\"\"$2*\"\"&": 4038,
      "!!+#\"$/!!$)-*(": 4039,
      "\"$!$!*)-*": 4040,
      "!!#)!$!$)-*(": 4041,
      "\"1\"\"\"$/$)-*$)-*(9": 4042,
      "(\"#\"\"\"$%": 4043,
      "-)!$!(#!!($": 4044,
      "\"&\"\"\"\"1\"\"\"+": 4045,
      "\"&\"\"\"7&*!!#": 4046,
      "\"#'\"&\"$\"#": 4047,
      "!!($!!$)-*-*": 4048,
      "\"&+'": 4049,
      "'\"#&": 4050,
      "!!!$!$)-*-*": 4051,
      "!!$2*": 4052,
      "!(#!!!!!#": 4053,
      "1*\"\"#*": 4054,
      "!!$)-*(!,#!($": 4055,
      "!\"&\"0\"1\"\"\"\"\"&1*": 4056,
      "\"&*+\"#": 4057,
      "\"#\"++$%": 4058,
      "!!!&)-": 4059,
      "!&)!$!$)-*": 4060,
      "!)!.#!6#$(!$)-*.#": 4061,
      "-\"#\"\"\"&\"$\"#*": 4062,
      "\"1\"\"\"\"\"1/": 4063,
      "-)!$(.#": 4064,
      "($!\"#\"\"\"\"\"#*": 4065,
      "4!)!&5!$)-*(": 4066,
      "\"1\"$2*\"\"\"\"12*": 4067,
      "8$!*$!!": 4068,
      "\"&*\"\"$-!*\"#-!": 4069,
      ",$-*.&-*": 4070,
      "(!$)-*.$!\"#\"\"\"\"\"#*": 4071,
      "\"&++++&": 4072,
      "-\"#\"$": 4073,
      "+$!!&": 4074,
      "!$)-*-!*$": 4075,
      "\"1*\"\"\"&#": 4076,
      ".1&*-!-9*\"\"": 4077,
      "\"\"\"#-!": 4078,
      "\"#\"\"\"\"$!$A*$A*A*\"#*": 4079,
      "!$)-*(.$!!!$)-*-*!$)-*(.$!!!$)-*-*": 4080,
      "+\"&\"\"\"\"\"#&*": 4081,
      "!!(!!#*": 4082,
      "!!(!!&*\"\"#": 4083,
      "\"&+\"0": 4084,
      "!&$!!!!!&*": 4085,
      "1\"\"\"\"": 4086,
      ".$!!": 4087,
      "\"&\"\"\"\"$!$A*$A*A*\"&*\"\"#": 4088,
      "\"1\"\"\"$E$)-*B*\"\"1": 4089,
      "!($!!(!$)-*!($!!(!$)-*": 4090,
      "6;": 4091,
      "\"$)-*+&%": 4092,
      "4()!$5/*(": 4093,
      "\"1'\"\"\"1": 4094,
      "++9*": 4095,
      "!!(#!": 4096,
      "\";\"$": 4097,
      "\"&\"\"\"$/$(*$)-*)-*\"\"&*": 4098,
      "\"&\"\"\"$A*\"$A*\"&*": 4099,
      "!$)-*($!*!": 4100,
      "+\"&\"\"\"\"\"&\"#)-": 4101,
      "\"&*\"\"": 4102,
      "!$)-*\"#\"\"\"$2*\"\"#": 4103,
      "!$!*)!4": 4104,
      "!\"#\"\"\"$2*\"$2*\"#": 4105,
      "\"1\"\"\"\"\"1*!$)-*": 4106,
      "4()\"#5": 4107,
      "!!6:$!*,9": 4108,
      "!$)-*!+&": 4109,
      "!!#$!$)-*(": 4110,
      "\"1\"\"\"$-*\"$-*\"1*": 4111,
      "!!!#)-": 4112,
      ".#-,$": 4113,
      "!-!$)-*\"#\"\"$": 4114,
      "\"1+\"\"9": 4115,
      "!!\"#\"\"\"\"\"#*(": 4116,
      "!$)-*(!!$)-*(,$": 4117,
      "\"&\"\"\"\"+&": 4118,
      "!!($!9": 4119,
      "\"\"$)-*": 4120,
      "\"1#*": 4121,
      "\"&\"\"\"\"\"&*\"\"": 4122,
      "!$)-*-*!$)-*-": 4123,
      "!!!-#": 4124,
      "\"$(*+\"+\"91*": 4125,
      "-!$!-*!$-*!$-*": 4126,
      "\"9\"\"\":\"$\"9*-!-:*": 4127,
      "$\"1\"\"\"\"\"1*": 4128,
      "\"&5": 4129,
      "\"1\"\"\"$!$!*$!*!*": 4130,
      "!(&!!($!": 4131,
      "\"#\"\"\"$-!$A*$A*A*\"\"#": 4132,
      "!$)-*($!*.$!!$!*!*": 4133,
      "\"#\"\"$!$A*$A*A*\"\"$!$A*$A*A*\"#": 4134,
      "(*+\"#": 4135,
      "!!-\"#\"\"\"&\"$\"#*": 4136,
      "!$)-*(,$!$)-*(.$!!!!(*": 4137,
      ",$-*!": 4138,
      ",$-*!-*": 4139,
      "-!!$A*$A*A*": 4140,
      "(D!.#": 4141,
      "\"#\"&\"$+\"1\"\"\"\"\"#1*": 4142,
      "!!$!*!$": 4143,
      "!-\"#\"\"\"\"$-!*\"#": 4144,
      "\"&\"\"$!*\"\"$!*": 4145,
      "7+&*\"\"#": 4146,
      "!!!\"1\"\"\"\"\"1*": 4147,
      "\"$-!*\"&*": 4148,
      "\"&\"\"\"$A*\"\"&*!#": 4149,
      "($!*/$)-*$)-*": 4150,
      "!)!$!$)-*-*": 4151,
      "\"#\"\"\"$(&!!-!!&*\"\"#": 4152,
      "!\"#\"\"&\"\"\"\"": 4153,
      "!8#$-*": 4154,
      "!#!!$": 4155,
      ".$!\"&\"\"\"\"\"&*": 4156,
      "!!$)-*(-*": 4157,
      "\"&\"\"\"$-*\"$": 4158,
      "!/$)-*$)-*\"#\"\"\"$": 4159,
      "\"1*\"\"&*\"\"#": 4160,
      "!!!9$!!1*": 4161,
      "!$)-*\"9\"\"\"\"\"9": 4162,
      "!!!:": 4163,
      "-)!$(\"#\"\"": 4164,
      "!-!$)-*,#": 4165,
      "-)!#!)!$": 4166,
      "\"&\"\"\"$3*\"\"&*\"\"#": 4167,
      "\"#\"$2*\"\"\"\"#": 4168,
      ">!\"#\"\"\"$/$)-*$)-*": 4169,
      "!!#)!&": 4170,
      "(&!!-!!&*\"\"#": 4171,
      "!(#!$)-*,$": 4172,
      "/$)-*$)-*($!*!*": 4173,
      "\"#\"\"\"$-\"&\"\"\"\"\"&*\"\"#": 4174,
      "1*\"\"&*+#": 4175,
      "!&!!!!!&*!!#": 4176,
      "!!!!!$": 4177,
      "!!(!,$-*": 4178,
      "1*!!&": 4179,
      "!!-\"#\"\"": 4180,
      "\"1\"\"\"$($!*!*": 4181,
      ")!$(*(": 4182,
      "!/!!,$(!$)-*,$!!$!*!*": 4183,
      "%1*-!-&": 4184,
      "%\"#+": 4185,
      "2*\"\"$": 4186,
      "!+#+\"\"$": 4187,
      "!)!$!*.#!!6&$": 4188,
      "!(!!&": 4189,
      "!!!8&$!*": 4190,
      "!-\"#\"\"\"$!$)-*4!)!4": 4191,
      ".$-*,$-": 4192,
      "!&!!&*!!#": 4193,
      "\"#\"\"\"\"\"#*\"#\"\"\"\"\"#*": 4194,
      "!-\"#\"\"\"&7": 4195,
      "(!$)-*.$(*!!!(!$)(*(*": 4196,
      "!,#!($,$!*!-*!$)-*": 4197,
      "\"&0#*": 4198,
      "!)!#!$)-*": 4199,
      "\"&\"$!*+7": 4200,
      "\"#\"+$%\"&\"\"\"\"\"&*": 4201,
      "(D!\"#\"$%": 4202,
      "\"&\"\"$A*\"\"$A*\"&*": 4203,
      "\"#\"$2*\"\"$": 4204,
      "!9*\"\"": 4205,
      "\"$/$)-*$)-*(&": 4206,
      "+\"&\"#*": 4207,
      "!!!(#!!!$": 4208,
      "2\"#\"\"\"$%": 4209,
      "!$)-*(&!$": 4210,
      "7\"&\"\"\"\"\"#&": 4211,
      "\"#\"\"\"$/$)-*$)-*": 4212,
      "\"&\"\"\"\"\"&2*\"\"#": 4213,
      "!-\"#+\"\"$%": 4214,
      "\"&\"\"\"\"\"&*!#)-": 4215,
      "-!!-&": 4216,
      "\"&\"\"\"\"\"&2*!!#": 4217,
      "!!!!9": 4218,
      ")!$2*": 4219,
      "!\"#\"\"\"\"$!$)-*(": 4220,
      ")!$/*(": 4221,
      "-)!$-*\"#\"\"\"\"\"#": 4222,
      "\"9\"\"\"$A*": 4223,
      "\"$)-*0\"1)-*": 4224,
      "*\"\"\"#2": 4225,
      "!(1!!!$": 4226,
      "!!8&#!*": 4227,
      "\"&\"\"\"\"\"&*\"\"$": 4228,
      "\"#\"\"\"$A*\"\"#*(": 4229,
      "!$-!": 4230,
      "!-\"#\"\"\"$.&": 4231,
      "\"&\"\"\"$@": 4232,
      ".#-!$)-*": 4233,
      "!!!\"#\"\"$": 4234,
      "!-\"#\"\"\"$(&!$)-*": 4235,
      "(!$)-*,$!*(*": 4236,
      "+\"$(9": 4237,
      "8&$!*!!": 4238,
      "\"$!*\"#!": 4239,
      "(!$/*)(": 4240,
      "\"#+\"&\"\"\"\"\"&+#": 4241,
      "*(#!!($!$)-*": 4242,
      "!&)-*\"\"#-!": 4243,
      "!-\"#\"\"&\"$\"$-!*\"#-!*": 4244,
      "!!!!!$)-*(": 4245,
      "\"\"$(!$)-*": 4246,
      "($!!": 4247,
      "(D!": 4248,
      "\"#%\"#\"\"\"$2*\"\"#": 4249,
      "6&$!": 4250,
      "!$)-*-*\"\"#*": 4251,
      "vD": 4252,
      "!&!#": 4253,
      "!($!!-*": 4254,
      "\"&\"+\"1\"\"\"\"\"1": 4255,
      "!!!!9*\"\"1*": 4256,
      "!-\"#\"\"\"&\"\"$": 4257,
      "\"&\"\"$-!*\"\"\"&": 4258,
      "\"\"\"\"\"#&": 4259,
      "-!.&": 4260,
      "!$)-*-!!$)-*": 4261,
      "!!&*\"+#": 4262,
      "\"#\"\"\"$%\"&\"\"\"\"\"&*\"\"#*": 4263,
      "\"7&*\"\"#": 4264,
      "/&$)-*)-": 4265,
      "!-.$": 4266,
      "!$(*)/*": 4267,
      "!+#\"\"$(!$)-*": 4268,
      "0\"&+": 4269,
      "-!$!$)-*-*": 4270,
      "\"#\"\"\"$!*\"\"#*": 4271,
      "\"#\"\"\"$(!$)-*(": 4272,
      "!#)!$!*": 4273,
      "!)!!$!*$!*": 4274,
      "+$,&": 4275,
      "\"#\"\"\"$(/$)-*$)-*": 4276,
      "!!-!!&*\"\"\"#": 4277,
      "!!&*!#)-": 4278,
      "\"$!*\"&*": 4279,
      "!+#+\"\"&": 4280,
      "!$)-*(,$!$)-*(.$!\"#\"\"\"\"\"#*!$)-*(,$": 4281,
      "+\"$A*": 4282,
      "\"1+\"\"\"\"&": 4283,
      "!!-!$)-*!$": 4284,
      "\"&'\"1\"\"\"\"\"1": 4285,
      ",$-!$!*)-*.$-!$!*)-*": 4286,
      "\"1\"\"\"$/$(*$)-*)-*\"\"1*": 4287,
      "vDE": 4288,
      "7&*!!#": 4289,
      "!($-*": 4290,
      "!&-": 4291,
      "!$)-*(.$!!#!!!!!#*": 4292,
      "\"'\"#": 4293,
      "!/\"#\"\"\"\"\"#": 4294,
      "-,$!-*.$-*,$-*,#-": 4295,
      "!:)-*": 4296,
      "\"1*\"\"&#": 4297,
      ",$-!$)-*\"&\"\"\"\"\"&*": 4298,
      "\"&2*\"\"#": 4299,
      "\"&\"\"\"$!$)-*": 4300,
      "!#)-*(": 4301,
      "!#&!!($": 4302,
      "!!$!*)!!!4!$!*)!4!!": 4303,
      "-.<": 4304,
      "\"9\"\"1": 4305,
      "!\"#\"\"\"$(/$)-*$)-*": 4306,
      "-!!/": 4307,
      "($!*!#)-": 4308,
      "\"&\"\"\"$-\"1\"\"\"\"\"1*\"\"&*": 4309,
      "\"1+\"9\"\"\"\"\"9'1*": 4310,
      "\"1\"\"\"9\"\"\"\"\"9+1*": 4311,
      "\"\"$-!*\"#": 4312,
      "-,9": 4313,
      "!!!!!!(!$)-*": 4314,
      "\"9+7": 4315,
      "4!$!*)(4": 4316,
      "!!\"#\"\"&\"$\"\"#%1*-!-&": 4317,
      ".#8&1--9": 4318,
      "!\"#\"\"\"$-!*\"\"#": 4319,
      "!$)-*-,&": 4320,
      "-)!$-*\"#\"\"$": 4321,
      "\"&\"\"\"1+\"\"$%\"9\"+": 4322,
      "!!+#\"\"$!$)-*-*\"$)-*": 4323,
      "+9\"\"\"$(*": 4324,
      "\"1\"\"$A*\"\"\"1": 4325,
      "\"1\"\"\"\"\"1!&)-*": 4326,
      "\"&\"$\"\"": 4327,
      "!!1*\"#": 4328,
      "\"9\"\"\"$-!*\"\"": 4329,
      "!$)-*(&!$!$)-*-*)!$": 4330,
      "\"&\"\"\"\"\"&#*(": 4331,
      "\"9\"\"$-*\"\"": 4332,
      "+9\"\"\"$(*+\"9)-*": 4333,
      "&*\"+#": 4334,
      "\"&\"\"\"$!D(*": 4335,
      "\"&\"$2*": 4336,
      "1*\"\"\"&\"#": 4337,
      "!($!*!!!(": 4338,
      "\":\"\"\"\"\":9*": 4339,
      "\"9\"\"$2*\"\"\"9": 4340,
      "+;": 4341,
      ">(": 4342,
      "!*!!#": 4343,
      "!!!!/": 4344,
      "\"\"$!$)-*": 4345,
      "+\"1%": 4346,
      "\"&'\"\"": 4347,
      "!4!$)(5(!$)-*": 4348,
      "-!#$": 4349,
      "!!!!&*\"#": 4350,
      "!-\"#\"\"$4!)!4!$)-*": 4351,
      "!#*!&": 4352,
      "\"10\"9\"\"\"\"\"9\"1": 4353,
      "!/\"#++\"$%": 4354,
      "!$)!4": 4355,
      "!$)-*-.#": 4356,
      "\"&\"+\"10": 4357,
      ")!$(*-": 4358,
      "!\"&\"\"\"\"\"&!#": 4359,
      "!$)-*-!$!*$!*!": 4360,
      "+9\"+\":\"$)-*0\"$(*+\":9*": 4361,
      "!$!*)": 4362,
      ")(!!(": 4363,
      "!!!(&!!-!!&*": 4364,
      "!!!!\"#+": 4365,
      "\"1\"\"\"$!(9": 4366,
      "\"$!*\"\"#": 4367,
      "!,&.1": 4368,
      "\"#\"\"\"$%\"&\"\"": 4369,
      "!.#&": 4370,
      "$!*!!,$-!$)-*": 4371,
      "!!=#": 4372,
      "+&*\"\"$-!*\"#-!": 4373,
      "!/#": 4374,
      "!D!\"&\"\"\"$": 4375,
      "!\"#\"\"\"&\"\"\"\"\"&\"#": 4376,
      "!-\"#\"\"\"&\"$\"#*\"$": 4377,
      "\"#0\"+\"#": 4378,
      "\"1\"\"\"$!$)-*(9": 4379,
      "!!8#$!*": 4380,
      "\"+\"&#": 4381,
      "++9": 4382,
      "\"$($": 4383,
      "!!!!!9*\"\"1*": 4384,
      "\"\"&1*\"\"#": 4385,
      "!.$A*": 4386,
      "\"1\"+\"\"+1*": 4387,
      "!$)-*(!$!*": 4388,
      ",#!!.$": 4389,
      "!$)-*(.$!!$!*!*!$)-*(.$!!$!*!*": 4390,
      "!\"&\"\"\"$2*\"$2*": 4391,
      "\"$!$)-*-*\"#": 4392,
      "!!!!!1": 4393,
      "\"&\"\"\"+&": 4394,
      "4!)": 4395,
      "!!$!*$!*-*": 4396,
      "!,#(": 4397,
      "6$-*$": 4398,
      ",$A*": 4399,
      "\"&\"\"\"\"$!$)(*(*": 4400,
      "\"&\"\"\"$%\"1\"\"": 4401,
      "!6#$-*": 4402,
      "!-\"#\"$-*": 4403,
      "!$A*$A*A*\"&*": 4404,
      "!!#!!!!(#": 4405,
      "!!$)-*B*": 4406,
      "+\"1&*\"\"#": 4407,
      "\"01*": 4408,
      "!-\"#\"\"&+\"+\"$(": 4409,
      "!!$)-*(&!!($": 4410,
      "4\"$)(4": 4411,
      "!$)-*!)!$": 4412,
      ".&-,$!-*.$-*,$-*,&-*": 4413,
      "E$)-*B*+#": 4414,
      "8&#": 4415,
      "-!!!": 4416,
      "!$)-*(!$)-*(": 4417,
      "+\"$!": 4418,
      "!!$!*!($": 4419,
      "!!$)-*(!$!*": 4420,
      "(#!.$!*": 4421,
      "!!!!!!#*": 4422,
      "-!81$": 4423,
      "\"$)-*\"$": 4424,
      "\"$-*\"\"1": 4425,
      "\"&\"++$": 4426,
      "!!$)-*(.$!\"#\"\"\"\"\"#*!$)-*(.$!!!$(*)-*!$)-*(.$!-*": 4427,
      "\"1\"\"\"$3*": 4428,
      "!1!9": 4429,
      "+&1*\"\"#": 4430,
      "!-\"#\"\"\"$(/$)-*$)-*": 4431,
      "!,$-*.$": 4432,
      "\"#\"0\"&\"\"\"$": 4433,
      "\"#++++#": 4434,
      "!1)!&": 4435,
      "!.#!!,&.$!*": 4436,
      "!!-!": 4437,
      ".$-*.$!*": 4438,
      "4!$/*": 4439,
      "\"1+\"#&": 4440,
      "\"1\"\"\"\"90": 4441,
      "\"#\"\"\"$A*\"$A*\"#": 4442,
      "\"#\"\"\"\"$!(": 4443,
      "($!$)-*(": 4444,
      "-*\"\"#&": 4445,
      ".9-*": 4446,
      "\":\"\"+\"\"": 4447,
      "+9\"\"$!*\"$)-*0\"9)-*-.1": 4448,
      ".C": 4449,
      "!!-!$)-*(#!!($": 4450,
      "!!&*\"&\"\"\"\"\"&#": 4451,
      "!9!!!!!9*": 4452,
      "\"#\"\"\"$(*\"\"#": 4453,
      "\"#\"'\"$": 4454,
      "+\"\"$%": 4455,
      "!!!-!$)-*": 4456,
      "\"1\"&*+#": 4457,
      "\"1\"+$": 4458,
      "!\"#\"$(!$)-*": 4459,
      "+&\"\"+\"&": 4460,
      "!!$)-*(\"#\"\"\"$/$)-*$)-*(": 4461,
      "!!8&$!*.$": 4462,
      "4!$(*)(4": 4463,
      "\"<\"\"\"\"\"<": 4464,
      "\"1\"\"\"\"\"1*!!&*\"#": 4465,
      ",$!*!!*": 4466,
      "!$)!&": 4467,
      "\"1\"\"\"\"$(!$)-*": 4468,
      "(!$)-*!(!$)-*!(!$)-*": 4469,
      "+0\"&\"#": 4470,
      "\"1\"\"\"$-\"9\"\"\"\"\"9*\"\"1*": 4471,
      "\"&\"\"$A*\"\"\"&": 4472,
      "!!(!#": 4473,
      "!\"#+\"$(*": 4474,
      "+01*": 4475,
      "!!,1.#": 4476,
      "\"&++\"$%\"1\"\"\"\"\"1*": 4477,
      "!$)-*(!!$)-*-*": 4478,
      "-!!D": 4479,
      "\"&++\"$/": 4480,
      "\"&\"\"\"$(1!!-!!": 4481,
      "!!!/$)-*$)-*(": 4482,
      "!!&)!$": 4483,
      "!!&!!($": 4484,
      "!$A*$A*A*!!#": 4485,
      "!!#*!&": 4486,
      "F$)-*$-*-*\"\"#*": 4487,
      "\"&\"'\"$(!$)-*": 4488,
      "(!$)-*.#!!!(#!$)-*.$": 4489,
      "(!$)-*,$!!!$)-*-*(!$)-*,$!!!$)-*-*": 4490,
      "\"&\"+$%\"1\"\"\"\"\"1*": 4491,
      "$B*$B*": 4492,
      "\"#+\"+\"&\"#": 4493,
      "!(1!!-!!1*": 4494,
      "\"&\"$+#*": 4495,
      "!-\"#\"\"$!(": 4496,
      "\"K": 4497,
      "\"1\"\"\"$!$!*!*": 4498,
      "!!!(!$)-*(": 4499,
      "!1)!$!*": 4500,
      "(#!!-!!#*": 4501,
      "!$)-*.$(!$)-*-!*": 4502,
      "()(": 4503,
      "!!(!": 4504,
      "\"&\"\"\"$/$)-*$)-*": 4505,
      "E$)-*B*\"\"&": 4506,
      "!($\"&\"\"\"\"\"&*": 4507,
      "!!+#\"&\"\"\"\"\"&": 4508,
      "4!)(4-*": 4509,
      "\"1\"\"\"$!$)-*(/$)-*$)-*": 4510,
      "\"1\"\"\"$A*\"$A*\"1*": 4511,
      "!(!#": 4512,
      "\"&\"\"$!$!*$!*!*": 4513,
      "4!)!4.$-*": 4514,
      "!,1.9": 4515,
      "\"#\"\"7": 4516,
      "$-!*\"#-": 4517,
      "\"&\"$2*\"\"$2*\"\"&": 4518,
      "\"#\"\"\"&\"1\"$": 4519,
      "!!-!$)-*(#!!!$": 4520,
      "!-!$)-*.$": 4521,
      "!(&!!($!$)-*": 4522,
      "4()!$5(": 4523,
      "\"\"$!*\"$)-*0\"&)-*": 4524,
      "4!$-*)!#5": 4525,
      "\"&\"\"\"7&*\"#": 4526,
      "!!,:": 4527,
      "!\"#++$!*\"$!*\"#": 4528,
      "!!&#": 4529,
      "!,$A*": 4530,
      "!$)-*(#!!!!!#": 4531,
      "!&)(!!(": 4532,
      "\"#\"+&\"$+#*": 4533,
      "!$)-*(.$!\"#\"\"\"\"\"#*!$)-*(.$!!!$)-*-*!$)-*(.$!!!(!$)(*(*!$)-*(.$!!$!*!*": 4534,
      "!#!-": 4535,
      "\"9\"\"\"$-!": 4536,
      "!-\"#\"\"\"&+\"$": 4537,
      "\"&+#*": 4538,
      "!!#!!!$": 4539,
      "\"1\"\"\"\"\"1!$A*$A*A*": 4540,
      "!(#!!-!!#": 4541,
      "\"$!*7#": 4542,
      "-)!$-*.#": 4543,
      "+&*'#": 4544,
      "!6#$": 4545,
      "$!!!!*": 4546,
      "\"&\"\"\"\"$!": 4547,
      "!!$!*-\"#\"\"\"$": 4548,
      "\"1\"$(*": 4549,
      "!)!9": 4550,
      "\"9\"\"\"+\"9": 4551,
      "!!\"#\"\"\"$%": 4552,
      "\"&+\"\"\"\"&#": 4553,
      "/$)-*$)-*(#!!-!!#": 4554,
      "!&!!": 4555,
      "+\"$)-*": 4556,
      "\"#\"\"\"\"$3*": 4557,
      "!!&*\"\"$": 4558,
      "!!$)-*(.$!!!(!$)(*(*": 4559,
      "\"$)-*7\"&\"#": 4560,
      "(!$)-*!(!$)-*,$!!!$)-*-*": 4561,
      "!89": 4562,
      "!!$!*$-": 4563,
      "\"1\"+$!*": 4564,
      "!!#$!*!!!$": 4565,
      "(!$)-*.$(*!-*": 4566,
      "((!$)-*": 4567,
      "\"\"+#*": 4568,
      "\"#!*": 4569,
      "\"1\"$(*+\"+": 4570,
      "\"1\"\"$2*": 4571,
      "\"1\"\"$/$)-*$)-*(": 4572,
      "!.$-*,#": 4573,
      "\"&+7+\"&": 4574,
      "!-\"#\"\"&\"$\"\"#-!*!$": 4575,
      "\"9\"\"$-!*\"$-!*\"\"9": 4576,
      "\"\"\":": 4577,
      "\"9\"\"\"$E$)-*B*\"\"": 4578,
      "\"9\"\"\"$!D(*\"\"": 4579,
      "+$!1": 4580,
      "\"#\"\"$2*\"\"$2*": 4581,
      "!.$!-*(#!.$!*": 4582,
      "\"1\"&)-*": 4583,
      "\"9\"\"\"\"$!*": 4584,
      "!)!!($": 4585,
      "!!+#\"\"$%": 4586,
      "!!$!D(*": 4587,
      "\"#\"\"\"\"$-*\"#*": 4588,
      "!-F$)-*$-*-,1!,$": 4589,
      "\"1'&*": 4590,
      "\"$%\"&\"\"\"$2*\"\"&*": 4591,
      "\"\"$%\"9\"\"\"\"\"9*": 4592,
      "!!9!!$!": 4593,
      "8:$!*": 4594,
      "\"1\"\"$-*\"\"$-*": 4595,
      "&*\"\"": 4596,
      ">!/$)-*$)-*-": 4597,
      "!$!*)!#!&$!*!": 4598,
      "\"#\"\"$A*\"$": 4599,
      "!$)-*(!#!!!!!#": 4600,
      "\"#\"\"\"\"\"#E$)-*B": 4601,
      "!!$!*!($!": 4602,
      "\"#+'": 4603,
      "(1!!!!1*": 4604,
      "4!)(4-": 4605,
      "!\"#\"7\"$%": 4606,
      "\"#\"\"\"\"$E$)-*B*\"#*": 4607,
      "(!$)-*!$!*$!*": 4608,
      "+\"$(/$)-*$)-*": 4609,
      "!!&*\"\"#-!": 4610,
      "-&*,$!*.$-.&-,$!*!,$($!*!*,&-*": 4611,
      "++1%": 4612,
      "!!!!.&": 4613,
      "!&!!!": 4614,
      "\"#\"\"\"&\"$(": 4615,
      "\"&\"\"$!D(*\"\"": 4616,
      "\"+#!": 4617,
      ",&!-": 4618,
      "\"#\"\"\"$(!": 4619,
      "6&#!": 4620,
      "4!)!4!)!": 4621,
      "\"&\"\"1\"$\"\"&A*": 4622,
      ":!!!!:*": 4623,
      "\"1\"\"\"\"\"1-": 4624,
      "\"&\"\"\"\"\"&*'#": 4625,
      "(!$)-*.$(*!!!!(*": 4626,
      "!81": 4627,
      "\"&\"$-*\"\"": 4628,
      ".#-,$!-*.$-*,#-": 4629,
      ".&-,$!-": 4630,
      "-)/$)-*$B*": 4631,
      "!!1*\"\"\"&#": 4632,
      "\"&\"$)-*+#": 4633,
      "\"$)-*+$!*\"$)-*+&!": 4634,
      "!$!*$!*.:!!691!*.&!#": 4635,
      "(!$)-*!(*": 4636,
      "!$!*-*": 4637,
      "!$A*A*\"\"#": 4638,
      "2*\"\"&*": 4639,
      ",$!*!!.$": 4640,
      "\"&\"\"\"+\"&*!!#": 4641,
      "\"#\"\"$-!*\"$-!*\"$-!*\"#": 4642,
      "\"$!!*": 4643,
      "!-4()!$5": 4644,
      "!\"#\"\"\"\"+#": 4645,
      "!$)-*(.&": 4646,
      "!$)-*(!!$)-*-": 4647,
      "\"&+\"1\"\"$2*\"\"": 4648,
      "(D!!#$": 4649,
      "\"#%\"#\"\"\"$": 4650,
      "\"1\"\"\"$!$A*$A*A*\"\"1": 4651,
      "\"1\"\"\"$!$)-*-*\"\"1*": 4652,
      "\":\"\"\"$A*\"\":*": 4653,
      "!$)-*(.$.$!*-*": 4654,
      "\"9\"\"\"\"\"9%": 4655,
      "\"&\"\"\"\"\"&*\"\"#-!": 4656,
      "\"$!$)-*(1": 4657,
      "\"&\"\"\"$(1!!($": 4658,
      "1*\"\"+#": 4659,
      "!$A*$A*A*\"1*": 4660,
      "-)!#!$": 4661,
      "!!.$(*": 4662,
      "8$!*$!$)-*-*": 4663,
      "$!*!!,$-*!$!*$!*": 4664,
      "-1": 4665,
      "\"#\"\"'": 4666,
      "\"&\"\"#-!*": 4667,
      "\"$%\"&\"\"\"\"\"&*+#": 4668,
      "!!-!$)-*\"#0": 4669,
      "!$)-*(&!\"1\"\"\"\"\"1": 4670,
      "!\"#+7\"$!*\"#%": 4671,
      "\"#\"\"&\"$'#*": 4672,
      "+:\"+": 4673,
      "-!81$-!$!*)-*,&": 4674,
      "!A*": 4675,
      "/!&": 4676,
      ",$!&*": 4677,
      "!!-!$)-*(#": 4678,
      "\"\"\"\"\"&#": 4679,
      "!/!&": 4680,
      "!!$)-*-!#": 4681,
      "\"+$!": 4682,
      "!!$\"1\"\"\"\"\"1*": 4683,
      "\"&\"\"\"'&*!!#": 4684,
      "$!!!*\"#)-": 4685,
      "$!$)-*-!*": 4686,
      ",$!!!$)-*-*": 4687,
      "\"&\"\"\"\"\"&A*\"\"#": 4688,
      "!$!*!*.$!*-*": 4689,
      "!+#++": 4690,
      "\"&\"\"\"'&*\"#": 4691,
      "!\"#\"\"+\"\"#*": 4692,
      "!!!!!!!(": 4693,
      ",$-*,&": 4694,
      "4!)!4!$)-*-*": 4695,
      "!.$!$)-*-*": 4696,
      "!\"&\"\"\"\"\"&*!!#*": 4697,
      "!.&-": 4698,
      "\"#\"\"&\"\"\"\"\"&7#": 4699,
      "!$!*)(": 4700,
      "\"#\"\"\"\"\"#*!$)-*-": 4701,
      "!9!!!!9*": 4702,
      "!\"#\"+$!": 4703,
      "!#)!!.1": 4704,
      "!4!$)(5(": 4705,
      "\"&\"\"$A*\"$(1": 4706,
      "!$)-*!(": 4707,
      "!&!!!&*": 4708,
      "!D!!($": 4709,
      "(!$)-*(!#": 4710,
      "!!$)-*(.$!!$!*!*": 4711,
      "\"&\"\"\"$!D(*\"\"": 4712,
      "\"9\"\"$!$A*$A*A*\"\"": 4713,
      "\"&\"\"\"$-!*\"\"#&": 4714,
      "\"1\"7": 4715,
      "\"9\"'": 4716,
      "\"$)-*\"\"#": 4717,
      "7#*(": 4718,
      "!,1-": 4719,
      "!!$!*\"#\"\"$": 4720,
      "\"#*!!&": 4721,
      "\"#\"$%\"&\"\"\"$A*\"\"&*": 4722,
      "6$!*$-!*": 4723,
      "\"&\"\"\"$($!*!*\"\"&*": 4724,
      "8$-*": 4725,
      "!!;*": 4726,
      "\"&\"\"\"\"+&*\"#": 4727,
      "/$)-*$)-*\"#\"\"\"$": 4728,
      "\"1\"\"\"\"\"1(": 4729,
      "(*+\"+\"1&*,$-*.#-": 4730,
      ">-)/$)-*$-*": 4731,
      "!!!(&!!!$": 4732,
      "\"$%\"1\"\"\"$2*\"\"1*": 4733,
      "$!!$-*": 4734,
      "!!69$!*,1!!6#&!": 4735,
      "($!!&!!&*": 4736,
      "6&#": 4737,
      "!$)-*($\"&\"\"\"\"\"&*": 4738,
      "$)-*7\"&\"#": 4739,
      "!(&!!($\"1\"\"\"$!$)-*(/$)-*$)-*": 4740,
      "!-!$)-*!#)!$!*": 4741,
      "!!6#&!*": 4742,
      "\"#\"$A*\"\"\"\"#A": 4743,
      "\"&\"\"7\"&*": 4744,
      "!D!\"#\"\"\"$(*+\"#": 4745,
      "+\"%&": 4746,
      "!!$\"#\"\"\"\"\"#*": 4747,
      "\";\"\"": 4748,
      "\"1++0": 4749,
      "\"$A*\"#A": 4750,
      "!$)-*(!!$(*)-": 4751,
      "!!$)-*4!)!4": 4752,
      "\"\"&2*": 4753,
      "\"=$!*": 4754,
      "+\"&\"$%": 4755,
      "!!$!*!(!$)-*": 4756,
      "\"&\"\"$(/$)-*$)-*": 4757,
      "\"9\"\"\"$2*\"$2*": 4758,
      "\"#+\"$(&": 4759,
      "!&)(($": 4760,
      "-1*\"\"#": 4761,
      "!!!!!!*": 4762,
      "\"#\"\"\"$(\"&\"1\"\"\"\"\"1": 4763,
      "!&*\"\"#-!": 4764,
      "!$)-*(1!!!$": 4765,
      "!6$!*$-*": 4766,
      "!\"&\"\"\"$-!*\"\"&*": 4767,
      ",&,$": 4768,
      "\"$-!*\"\"#": 4769,
      "!!!(#!!-!!#": 4770,
      "\"&'\"$": 4771,
      "!$)-*(.$!\"&\"0\"1\"\"\"\"\"&1*": 4772,
      "!8#$": 4773,
      "+#++": 4774,
      "!\"#\"\"\"$2*": 4775,
      "!$)-*(,$!$)-*(": 4776,
      "!!6&#!": 4777,
      "\"\"\"&1*\"\"#": 4778,
      "\"&\"$A*\"\"1": 4779,
      "\"#\"$A*\"\"\"\"#A*": 4780,
      "/$)-*$)-*\"1\"\"\"\"\"1*": 4781,
      "+&1*": 4782,
      "-)!$(\"#+": 4783,
      "+&\"\"$!$(*)-*\"$(": 4784,
      "\"9\"\"\"\"$!$A*$A*A*\"9*": 4785,
      "!(!$)-*-": 4786,
      "!-!!$)-*(": 4787,
      ",$-*,#-": 4788,
      "-)!$(\"#\"\"\"\"$%": 4789,
      "!!(!$)-*,#": 4790,
      "!!$)-*(#()!$": 4791,
      "!!$!*$!*-!$)-*(#": 4792,
      "\"&*\"\"$%": 4793,
      "(!$)-*,$!!!(*": 4794,
      "!!(#!!($!$)-*": 4795,
      "!$)-*-!\"&\"\"\"\"\"&*": 4796,
      "!)!$!*!*": 4797,
      "\"#\"\"\"$!$)-*": 4798,
      "!-!$)-*(#": 4799,
      "++#%\"#\"\"\"\"\"#": 4800,
      "!!$!*!,#": 4801,
      "6#$!*!!": 4802,
      "!\"#\"'\"$(!$)-*": 4803,
      "\"1\"$2*\"\"\"\"1": 4804,
      "\"9\"\"\"$!$A*$A*A*\"\"9*": 4805,
      "\"&++$": 4806,
      "!$!*!*+#": 4807,
      "\"#\"\"\"$A*\"\"#A*": 4808,
      "\"&+\"$(!": 4809,
      "\"1\"\"9\"\"$": 4810,
      "\"1\"\"\"$-!!(9": 4811,
      ".$\"&\"\"\"\"\"&*": 4812,
      "+\"$(&!!-!!&*": 4813,
      "\"1\"$\"#&*": 4814,
      "+\"1\"&*": 4815,
      "\"\"\"+#*": 4816,
      "\"&7\"1\"\"\"\"\"1": 4817,
      "!(\"#+": 4818,
      "\"1\"\"\"$)-*": 4819,
      "\"$)-*\"&": 4820,
      "\"$%\":\"\"\"$": 4821,
      "\"#\"\"\"$%\"&+\"$%": 4822,
      "2>-)!$": 4823,
      "!E": 4824,
      "!$)-*-.&": 4825,
      "-)!$(!#!!!!!#*": 4826,
      "!!(#!!($!": 4827,
      "!-\"#\"\"\"$%+&": 4828,
      "(!$)-*!$!*": 4829,
      "!-\"#\"\"\"$!!$)-*(": 4830,
      "!.$(!$)-*(": 4831,
      "!!\"#+\"+": 4832,
      "0&*!!#": 4833,
      "F#": 4834,
      ",$(": 4835,
      "!-\"#\"\"&\"$-": 4836,
      "(!$)-*-!\"&\"\"\"\"\"&*": 4837,
      "\"$)-*+1!*": 4838,
      "!$)-*!+&\"+": 4839,
      "*\"\"$)-*": 4840,
      "!-,$": 4841,
      "\"\"\"\":": 4842,
      "-!.$-*": 4843,
      "+9*\"\"": 4844,
      "+1\"\"\"\"": 4845,
      "\"1\"\"\"\"\"&1*\"#": 4846,
      "\"&\"\"1\"\"\"\"\"1+": 4847,
      "\"$-!*\"$-!*": 4848,
      "!.&!!,$": 4849,
      "+\"&\"\"#-!!!(#": 4850,
      "\"$!*\"\"1": 4851,
      "!$)-*(#!!-!!#": 4852,
      "!!-!$)-*\"#\"\"$": 4853,
      "\"9\"\"$-!*": 4854,
      "!!1*\"\"#&": 4855,
      "!\"#\"\"\"$!$)-*(&": 4856,
      "!-\"#\"\"\"$4!)(4(!$)-*": 4857,
      "-)!$(!$)/*(": 4858,
      "!\"#\"\"\"$%\"&\"\"\"\"\"&*\"\"#": 4859,
      "\"&\"\"\"$A*\"\"&#": 4860,
      "\"&\"\"$A*\"\"\"&A*": 4861,
      "!$!*$!*.:!!89$!*": 4862,
      "\"&+\"\"\"+&*!!#": 4863,
      "\":\"\"\"$2*\"\":*": 4864,
      "\"$2*\"$2*": 4865,
      "!-\"#\"\"\"$%+&+\"$": 4866,
      "1!!!!!!1*": 4867,
      "!+#\"\"+\"#*": 4868,
      "!.:": 4869,
      "7+&*": 4870,
      "!!!/$)-*$)-*": 4871,
      "\"0\"&\"#": 4872,
      "\"1*\"\"&*!!#": 4873,
      "F$)/*": 4874,
      "!!-F$)-*$": 4875,
      "\"#\"\"$E$)-*B*\"\"\"#": 4876,
      "!!!!!:*": 4877,
      "\"$-*\"#!&)-*": 4878,
      "!$\"&\"\"\"$A*\"\"&*": 4879,
      "!!#)!$!*": 4880,
      "!!$!*-#": 4881,
      ",$-*.#-*": 4882,
      "+\"1!*": 4883,
      "7\"&\"\"$": 4884,
      "C*": 4885,
      "!!$!*$(*": 4886,
      "!!1*\"&\"#": 4887,
      "!\"#\"\"\"\"\"#A": 4888,
      "!#*\"#\"\"\"\"\"#": 4889,
      "\"9\"\"$-*": 4890,
      "!$)-*(!!$)-*(.$!\"#\"\"\"$-*\"\"#*!$)-*(.$!\"#\"\"\"\"\"#*!$)-*(.$!!!$)-*-*!$)-*(.$!!!(!$)(*(*!$)-*(.$!!$!*!*": 4891,
      "\"1*(": 4892,
      "!$)-*(,1": 4893,
      "!!!!!!!!!!!!$)-*": 4894,
      "!($!!*": 4895,
      "4()!#4": 4896,
      "+\":": 4897,
      "\"$A*\"\"#": 4898,
      "\"&\"\"\"$/": 4899,
      ",&!#": 4900,
      "+$%\"9\"\"\"\"\"9*": 4901,
      "!)!,$": 4902,
      "!!$!*!,$(!$)-*.$": 4903,
      "\"#\"\"\"\"$2*\"#2": 4904,
      "!!81&!*": 4905,
      "\"#\"\"$!$A*$A*A*\"\"\"#": 4906,
      "$3*": 4907,
      "19*": 4908,
      "-*-": 4909,
      ".$!!*": 4910,
      "-)!$-!": 4911,
      "!$(*)-*!$!*!": 4912,
      "!!!,$(*": 4913,
      "!!8&$!*,#": 4914,
      "!$)-*(#!\"&\"\"\"\"\"&!,#": 4915,
      "\"$-!$!*)-*": 4916,
      "!$)-*(!\"&\"\"\"$": 4917,
      "\"&\"\"\"+\"&*+#": 4918,
      "!!($!!*\"#\"\"\"$": 4919,
      "\"#\"\"\"+\"#-": 4920,
      "\"#\"\"\"&\"$\"#*-!!-&*": 4921,
      "(!$)-*.$!\"&\"0\"1\"\"\"\"\"&1*": 4922,
      "!-!!!(!$)-*": 4923,
      "!!$!*!$)-*(": 4924,
      ",&.$": 4925,
      "\"#\"\"\"$(&!$)-*": 4926,
      "8$!$)-*-!*$": 4927,
      "!!!!9*\"\"": 4928,
      "!!-!#)-": 4929,
      ",#&*": 4930,
      "!&!!!!!&*\"#": 4931,
      "!!!!!!!!!!!!!!": 4932,
      ",&!!.$": 4933,
      "\"1\"\"$(9": 4934,
      "!D(*\"\"#*": 4935,
      "!-!$)-*!#)!$!*(": 4936,
      "+1*\"\"\"&#": 4937,
      "\":\"\"$2*\"\"": 4938,
      "!(!$!*)-*": 4939,
      "!-!,#": 4940,
      "\"\"#-!": 4941,
      "!!!(1!!-!!1*": 4942,
      "-)!$(!!#": 4943,
      "!!!(#!!-!!#*": 4944,
      "\"&\"\"1\"\"\"$": 4945,
      "!!($!*!$)-*": 4946,
      "!!,$!*,$(*": 4947,
      "69$!*!!": 4948,
      ".9!!81$!*6#$!*": 4949,
      "!\"&\"\"$": 4950,
      "\"$!$)-*(&": 4951,
      "\"1\"$\"$-*\"#!&)-*": 4952,
      "++\"1": 4953,
      "-*\"\"&*\"\"#": 4954,
      "!$)-*->": 4955,
      "!($!*!!-": 4956,
      "\"#\"$-*\"\"$": 4957,
      "!-\"#\"\"\"&\"$)-*": 4958,
      "\"#\"\"\"$!+&": 4959,
      "(!$)-*\"#\"\"\"$%": 4960,
      "(!$)-*4!$)!4": 4961,
      "\"9A*": 4962,
      "+&\"\"\"$(*+\"&)-*": 4963,
      "\"$!*+&": 4964,
      "!!!&*\"\"#": 4965,
      "\"1+\"+\"90": 4966,
      "!!$!*$!*-!$)-*(#!!!$": 4967,
      "!!!!!!!#": 4968,
      "!-!$)-*!(!$)-*": 4969,
      "\"$-*\"#*": 4970,
      "!\"&\"\"\"\"\"&*+#": 4971,
      "\"&+\"1\"\"\"\"\"1'&*\"\"#": 4972,
      "\"&\"'\"$": 4973,
      "$!!*!)!!(": 4974,
      "6&$-*!,$-!$)-*": 4975,
      "+\"1\"\"\"\"": 4976,
      "+1*\"\"&*\"\"#": 4977,
      "!&)!!$)-*": 4978,
      "!!#*(": 4979,
      "!!!4!)!5": 4980,
      "\"+&!*": 4981,
      "\"1\"\"+\"9\"\"$2*\"\"": 4982,
      "\"$!$A*$A*A*\"&*": 4983,
      "+$!\"&\"\"\"\"\"&*\"$)-*0\"#)-": 4984,
      "\"1-!*": 4985,
      "\"#\"\"\"\"$!*": 4986,
      "\"&\"\"\"\"\"&2*\"#": 4987,
      "!!$!*$!": 4988,
      "\"9\"\"'": 4989,
      "!\"&\"\"\"\"\"&2*": 4990,
      "-\"#\"\"\"\"$": 4991,
      "6$-*$!": 4992,
      "A\"#\"\"\"\"\"#": 4993,
      "4!)!$!*": 4994,
      "-,$!(*": 4995,
      ".:!!691!*": 4996,
      "\"#\"$!*\"\"\"\"#": 4997,
      "!$(*)(#": 4998,
      "+\"1&*,$-*.#-": 4999,
      "6$!*$-!*!.$!*": 5000,
      "+\"&*!!#": 5001,
      "\"9%": 5002,
      "\"&++$%": 5003,
      "\"$(*+\"+\":9*": 5004,
      "\"L": 5005,
      "'4\"#": 5006,
      "!$)-*(!$!*$!*!*": 5007,
      "!#!!!#": 5008,
      "\"&\"$!$(*)-*": 5009,
      "*\"\"&#": 5010,
      "!-\"#\"\"\"&\"1\"#-": 5011,
      "\"\"$-*\"#": 5012,
      "1!!-!!1*\"\"&*": 5013,
      "!!$!*!,$(*": 5014,
      "!!:!!$!!$!:*!1*!9*": 5015,
      "\"+1*\"\"": 5016,
      "\"#\"\"\"\"$(!$)-*(": 5017,
      "!&*+7#": 5018,
      "!!-!$)-*\"#\"\"\"$(!$)-*": 5019,
      "(!$)-*.$!!!$(*)-*": 5020,
      "$!!)!$!*!*": 5021,
      "\"&+7\"$%": 5022,
      "!$)-*(.$!!!!(*!$)-*(.$!!$!*!*!$(*)-*!$!*!*!$!*!": 5023,
      ".1!!,9": 5024,
      "!&*'#": 5025,
      "\"#%+#": 5026,
      "\"&+\"\"'&*\"\"#": 5027,
      "\"&\"\"\"$(*\"\"&*": 5028,
      "\"\"\"\"19*": 5029,
      "!-\"#\"\"\"\"&\"#!$)-*\"#\"$-*": 5030,
      "!$)-*.$(!$)-*-!*!$!*!*": 5031,
      "!$3*": 5032,
      "!\"#++$!": 5033,
      "+\"$(*+#": 5034,
      "!,#!($.$!*!-*": 5035,
      "!$)-*!)!&": 5036,
      "!$!*)!&": 5037,
      "-)!$\"#\"\"\"7#": 5038,
      "\"\"$3*": 5039,
      "\"$%\"&\"\"\"$A*\"\"&*": 5040,
      "\"&+\"\"\"+&*": 5041,
      "\"#\"\"+\"&\"\"$2*\"\"\"#&": 5042,
      "!=&": 5043,
      "4!)!4\"#\"\"\"\"\"#*": 5044,
      "!$-*!#-": 5045,
      "!\"&\"\"\"$2*\"\"&*": 5046,
      "!\"&\"\"\"$A*\"\"&*": 5047,
      "-\"#+": 5048,
      "!!#!!": 5049,
      "-)!#!!": 5050,
      "!!#*!!&": 5051,
      "!*\"\"#-!": 5052,
      "!$)-*(.$!!$!*!*!$)-*(.$": 5053,
      "4!$)(5(": 5054,
      "\"&\"+\"\"+&*": 5055,
      ".#!!!(#!$)-*,$": 5056,
      "!1*+#": 5057,
      "\"&+\"$!$)-*(": 5058,
      "!-\"#\"\"\"$%\"&\"\"$": 5059,
      "!!$)-*(#!!($!$)-*": 5060,
      "-!#!!!!#": 5061,
      "\"1+\"\"'": 5062,
      "!$A*$A*!$A*$A*!$A*$A*!$A*$A*": 5063,
      "-!$)-*(": 5064,
      "1$)-*)-*": 5065,
      "!#>2": 5066,
      ".#!!($": 5067,
      "4()!$": 5068,
      "+$!*+#": 5069,
      "\"9\"\"7\"9*": 5070,
      "!-\"#\"\"\"\"&\"#!$)-*\"#\"$-*\"1\"$\"$-*\"#!&)-*": 5071,
      ">A": 5072,
      ">B": 5073,
      "\"\"\"#!": 5074,
      "!!&*\"$!*\"#": 5075,
      "!\"#\"\"$(*": 5076,
      "!1*!!#": 5077,
      "+\"&\"\"#": 5078,
      "+\"&(": 5079,
      "(!)-*": 5080,
      "\"\"\"\"#&*": 5081,
      "\"9\"0\":\"\"\"\"\"9:*": 5082,
      "\"&\"\"+1": 5083,
      ".&,$": 5084,
      "(D!\"#\"\"\"\"$%": 5085,
      "!$)-*($!*!$)-*": 5086,
      "\"$!)-*": 5087,
      "\"&\"\"\"\"\"&1*\"\"#": 5088,
      "!!$!*!!$": 5089,
      "!-\"#\"\"\"$(&!!($!$)-*": 5090,
      "\"#\"\"\"\"\"#*/$)-*$)-*": 5091,
      "\"9\"\"+": 5092,
      "\"9\"$2*\"\"": 5093,
      "!:!!:*": 5094,
      "!+#\"+\"\"#": 5095,
      "2\"#\"\"\"\"\"#": 5096,
      "!\"#\"\"$!*\"\"$%": 5097,
      "!F$)-*$-*": 5098,
      "\"$!!)!$!*!*": 5099,
      "!!-\"#\"\"&": 5100,
      "!&!!!!&*\"\"#": 5101,
      "!,1-!81$-!$!*)-*,&": 5102,
      "!!691": 5103,
      "\"&\"\"\"\"1\"\"\"\"\"&1*\"\"#": 5104,
      "\"1\"\"\"\"\"1\"&)-*\"\"#": 5105,
      "!!$)(*": 5106,
      "\"&+\"+\"$(*": 5107,
      "!-\"&\"\"\"\"\"&-#": 5108,
      "-.$!*,$-*.$-*": 5109,
      "\"&\"\"$A*\"$A*\"\"&": 5110,
      "+\"%1": 5111,
      "!&*7#": 5112,
      "'#*(": 5113,
      "(\"#+\"&\"\"\"\"\"&": 5114,
      "\"17&*\"\"#": 5115,
      "\"&\"\"\"$!$!*$!*!*\"\"&*": 5116,
      "!!\"&\"\"\"\"\"&#": 5117,
      "!!\"#\"\"$%": 5118,
      "!!.:": 5119,
      "\"#\"\"\"\"\"#3": 5120,
      "\"\"\"\"\":": 5121,
      "+++#%": 5122,
      "!.$-!$!*)-*": 5123,
      "(1!!!!": 5124,
      "\"1\"\"\"\"$!$)-*-*": 5125,
      "!$(*)!$!D(*": 5126,
      "\"&+\"+\"$(1": 5127,
      "\"&\"\"\"$!*\"\"&*\"#": 5128,
      "+9\"+\":\"$(*+\"+\":9*": 5129,
      "+&\"\"\"+": 5130,
      "\"$!*\"&\"#": 5131,
      "!+#+\"\"": 5132,
      "+\"#%&": 5133,
      "(D!!!#$": 5134,
      "4!)!$5-*": 5135,
      "\"&+\"\"\"\"#&": 5136,
      "\"$-!*\"\"1": 5137,
      "!!6$": 5138,
      "\"&\"\"\"1\"$\"&*-!-1*!!#": 5139,
      "\"1+\"$(9": 5140,
      "\"#\"\"\"$-.&!!($": 5141,
      "\"&\"\"\"\"\"&*7#": 5142,
      "\"1\"\"\"$A*\"\"1*!!&*\"\"#": 5143,
      "\"&\"\"1\"\"\"\"\"1\"\"&": 5144,
      "\\$-*-": 5145,
      ":*\"\"1*": 5146,
      "$!*\"#)-": 5147,
      ")!$\"&\"\"\"$2*\"\"&*!#": 5148,
      "!!(!$!*)-*": 5149,
      "!!$!*\"#\"\"\"\"$": 5150,
      "!!$)-*(!#": 5151,
      "!/!#": 5152,
      "+\"+\"#&": 5153,
      "\"1\"\"\"\"$!$)-*(": 5154,
      "'\"#%": 5155,
      "-!:": 5156,
      ".&.$": 5157,
      "-)!$-*\"#\"\"$%": 5158,
      "8#$!*-": 5159,
      "\"1\"\"$A*\"\"$A*": 5160,
      "\"&\"\"$3*\"\"\"&": 5161,
      "!!#$!*!!!$!(&!!($\"1\"\"\"$!$)-*(/$)-*$)-*": 5162,
      "!!!!\"#+\"$": 5163,
      "!!&!!!#": 5164,
      ",#-!$!*)-": 5165,
      "\"&\"\"\"$/$)-*$)-*(1": 5166,
      ".$!-F$)-*$/*": 5167,
      "!!)!9!.$-*": 5168,
      "!\"#\"$A*\"\"\"\"#": 5169,
      "(!$)-*\"#\"\"$%": 5170,
      "!&!!(": 5171,
      "!&!!/$)-*$)-*": 5172,
      "\"#\"\"\"\"$-!*\"#": 5173,
      "\"&\"+0": 5174,
      "!!$!*$!*+#": 5175,
      "!$)-*\"9\"\"\"\"\"9!1)-*": 5176,
      "'\"&!#": 5177,
      "(!$)-*!(#": 5178,
      "!!$!*.$": 5179,
      "\"$(:": 5180,
      "\"&\"+\"$": 5181,
      "!!$)-*->": 5182,
      "\"1\"+$%": 5183,
      "\"&\"\"\"+\"#&": 5184,
      "!-\"#\"\"\"$-!*\"$(!$)-*": 5185,
      "\"1&*!!#": 5186,
      "\"&\"\"0": 5187,
      "!$)-*(&*": 5188,
      "!!$)-*(\"#\"\"\"$(!$)-*": 5189,
      "!$!*$!*!#": 5190,
      "!$)-*(,$!$)-*(.$": 5191,
      "+\"&\"\"\"$": 5192,
      "!$)-*\"1\"\"\"\"\"1*": 5193,
      "!!(\"#+\"$": 5194,
      "!!$!*!(": 5195,
      "\"#\"\"\"$-!!$)-*(": 5196,
      "\"&+\"+\"1'": 5197,
      "(!$)-*!(!$)-*,$!*": 5198,
      "!\"#+\"$-*": 5199,
      "\"9\"\"\"$A*\"\"9*!!1*": 5200,
      "!$)-*.$!*": 5201,
      "\"1\"\"\"$2*\"$": 5202,
      ".&!.1": 5203,
      "!$)-*-!&": 5204,
      "!$!*!*!$)-*": 5205,
      "\"$%\"&\"\"\"\"\"&*+\"#": 5206,
      "+\"91*": 5207,
      ",1-*\"&+#": 5208,
      "2>-)!$-*": 5209,
      "\"&+\"$)-*": 5210,
      "!)!,#": 5211,
      "!$)-*-!*!#": 5212,
      "!$)(*(*\"\"#*": 5213,
      "\"1\"\"\"\"\"1*\"\"&*!!#": 5214,
      "\"$2*\"#2": 5215,
      "\"1*!!&*)!$\"&\"\"\"$2*\"\"&*!#": 5216,
      "s$B*$B*": 5217,
      "\"\"+$": 5218,
      "!!!(#*": 5219,
      "!$)-*-*!$!*!": 5220,
      "\"&\"\"\"\"$(1": 5221,
      "(D!!$": 5222,
      "\"&\"\"1=$": 5223,
      "+7&*\"#": 5224,
      "!#)(!!(#": 5225,
      "\"&\"\"\"$E$)-*B*\"\"&*\"\"#": 5226,
      "+9*\"\"1*": 5227,
      "\"1\"\"$)-*": 5228,
      "A*!!#": 5229,
      ",$-*,$-": 5230,
      "!!!!!!!!(": 5231,
      "1!!-!!1*\"\"&": 5232,
      "/*\"\"#": 5233,
      "\"&++\"$!*": 5234,
      "!(&!!!!&*": 5235,
      "!!/$)-*$)-*(#": 5236,
      "\"#+\"\"\"$%": 5237,
      "-)!$(!#!!#*": 5238,
      "!-!!#": 5239,
      "!!!.$(*": 5240,
      "*(!$!*)-*": 5241,
      "!!&*\"\"": 5242,
      "-)!$(\"#\"\"\"$%": 5243,
      "!-\"#\"\"$(*": 5244,
      "!$)-*-!.&": 5245,
      "\"1\"\"\"$!$!*$!*!*\"\"1*": 5246,
      "/!!$)-*(#": 5247,
      "!$!!$!*!*": 5248,
      "!#!!(!!#": 5249,
      "\"#\"\"\"\"$!-": 5250,
      "-)!$(\"#\"\"\"\"\"#*(": 5251,
      "+\"$(9!!-!!9*": 5252,
      "!-\"#\"\"\"\"$!&": 5253,
      "\"&\"\"\"\"$!$A*$A*A*\"&*!!#": 5254,
      "'\"&\"#!!!!&": 5255,
      "\":\"\"\"\"\":*\"\"9*": 5256,
      "\"$-!$)-*": 5257,
      ",#-.$": 5258,
      "\"\"&\"#-": 5259,
      "+\"$($!*!*": 5260,
      "!!.#.&!!6&$!*": 5261,
      "\"\"\"\"\"#": 5262,
      "!!&!1": 5263,
      "!&)-*\"\"\"#-": 5264,
      "!)!#!!,&": 5265,
      "4\"$)!4": 5266,
      "\"&\"\"\"$!$(*)-*": 5267,
      "!!!)!$": 5268,
      "\"9\"\"\"\"$-*": 5269,
      ",$-*.1-": 5270,
      "!+#\"$)-*0": 5271,
      "!!$!*$!*!$)-*-*": 5272,
      "\":\"\"\"$-*": 5273,
      "!&!!&*\"#": 5274,
      ")!9": 5275,
      "!!!$)(*": 5276,
      "\"#+\"&\"$'#*": 5277,
      "+1\"+\"9\"$(*+\"+\"91*": 5278,
      "!8&$!*": 5279,
      "(-": 5280,
      "\"1\"\"\"$!D(*": 5281,
      "+1\"\"$%": 5282,
      "+\"+1*": 5283,
      "!!!&$!*": 5284,
      "!\"#+7\"$": 5285,
      "\"1\"\"\"\"$!D(*\"1*": 5286,
      "!!!$!-*": 5287,
      "!D!!-": 5288,
      "-)!#(!$": 5289,
      "!\"#\"\"\"\"$(!$)-*(": 5290,
      "\"&\"$)-*+$!*": 5291,
      "!\"#\"\"$-*\"\"$!*\"#": 5292,
      "!6#": 5293,
      "!$)-*\"#\"\"$": 5294,
      "!&)!#": 5295,
      ",$-*.$": 5296,
      "!.$!$)-*(": 5297,
      "(!$)-*,$!\"&\"+\"0&*": 5298,
      "\"&\"\"\"\"$A*\"&*\"\"#": 5299,
      "\"&\"\"$A*\"\"\"&#": 5300,
      "3*\"\"$3*": 5301,
      ">!\"#\"\"\"$/$)-*$)-*B*\"\"#": 5302,
      "\"\"\"1+": 5303,
      "!!!!$!*!*": 5304,
      "!\"#\"\"\"$A*": 5305,
      "!$!*$!*!$)-*": 5306,
      "4!)!9": 5307,
      "!!$)-*-,#!$)-*6&$!*": 5308,
      "\"&\"\"\"$/$!*$)-*)-*\"\"&*": 5309,
      "(\"#\"+": 5310,
      "!!*\"\"#": 5311,
      "\"1\"&%": 5312,
      "\"&\"\"\"$!$)-*(1": 5313,
      "!(#!&!!!#": 5314,
      "!-\"#\"\"\"\"$!(": 5315,
      "6&$!*!!": 5316,
      "!-F$)-*$-*-*": 5317,
      "\"+9": 5318,
      ",#\"#\"\"\"\"\"#": 5319,
      "!-\"#\"\"$(&": 5320,
      "!!($!$)-*!": 5321,
      "\"9*\"$-": 5322,
      "+&!*\"#": 5323,
      "+\"&\"\"$": 5324,
      "!-\"#\"\"\"$!$)-*(&": 5325,
      "++$": 5326,
      "!\"#\"\"\"\"\"#2*": 5327,
      "!!!!$!$)-*(": 5328,
      "\"&\"$(1": 5329,
      "\"&0\"1\"\"\"\"\"1\"&": 5330,
      "\"1+\"+\"$(*": 5331,
      ".$-!$)-*\"9\"\"\"\"\"9*": 5332,
      "!\"#0\"&\"\"\"\"\"&\"#": 5333,
      "(!$)-*\"#\"\"\"$(": 5334,
      "!/\"&++\"$": 5335,
      "!9$!*!*": 5336,
      "!-\"#\"\"\"\"\"#!(": 5337,
      "\"&!*!!#": 5338,
      "!//!.$!$)-*-*": 5339,
      "79*": 5340,
      "\"&!D(*\"\"#": 5341,
      ",$\"&\"\"\"\"\"&*": 5342,
      "(!$)-*\"#'": 5343,
      "2*\"$%": 5344,
      "-)\"#+": 5345,
      "!$A*$A*A*\"#*(": 5346,
      "\"&\"+\"\"\"&": 5347,
      "!(&!$)-*(": 5348,
      "\"#+7\"$": 5349,
      "\"9\"\"\"$A*\"\"9A*": 5350,
      "\"9\"$A*\"\"\"\"9A*": 5351,
      "!!&*'#": 5352,
      "(\"#+0": 5353,
      "!!($!!*!!(": 5354,
      "\"&'\"$(": 5355,
      "\"#++\"$(!$)-*": 5356,
      "!69$!*": 5357,
      "\"$)-*+$!*\"#)-": 5358,
      "()!$(*(!!!.#": 5359,
      "\"%#": 5360,
      "!!;": 5361,
      "$!/": 5362,
      "\"#\"\"\"\"$!$)-*-*\"#": 5363,
      "!(!$)-*.#": 5364,
      "\"&+\"$/": 5365,
      "*\"\"\"#A": 5366,
      "$!$)-*(-*": 5367,
      "\"9\"\"+\"\"9": 5368,
      "\"&0\"$": 5369,
      "$!*!9": 5370,
      "-!$+&\"+\"1\"$": 5371,
      "2*\"$2*\"#*": 5372,
      "!\"&\"\"\"$(!$)-*": 5373,
      ".;:*": 5374,
      "!!(9!!-!!9*": 5375,
      "\"#+7\"$%": 5376,
      "!\"#+\"\"$E$)-*B*+#": 5377,
      "!#)!&": 5378,
      "!$)-*-.$": 5379,
      "\"$A*\"#*": 5380,
      "!!(&!!!!!&*": 5381,
      "!$)-*(.$!*!$)-*(,$": 5382,
      "A*\"$A*\"#*": 5383,
      "\"1&*!#": 5384,
      "!!!!$-*": 5385,
      "\"\"&'#": 5386,
      "!(!$)-*.&": 5387,
      "-,$!-*.$-*,&-*": 5388,
      "!!#&!!1!!$!!$!1*!#*": 5389,
      "(!$(*)(": 5390,
      "\"\"$!D(*": 5391,
      "!$)-*!(#": 5392,
      "+&\"$)-*0": 5393,
      "\"9\"\"\"$3*\"\"9*": 5394,
      "\"&\"\"\"\"+#&": 5395,
      "!!#)!!$)-*": 5396,
      "+&#": 5397,
      "!,$!$)-*(": 5398,
      "\"$-!*\"#*": 5399,
      "!\"&\"\"\"$!*": 5400,
      "\"&++++&%": 5401,
      "!!891!*.#": 5402,
      ">-)/$)-*$-*-": 5403,
      "\"1\"\"$A*": 5404,
      "!!$!*$!*(!$)-*": 5405,
      "\"&+++1": 5406,
      "+\"1\"\"\"\"\"1&*\"\"#": 5407,
      "-!!$": 5408,
      "!$)-*!)": 5409,
      "\"1\"\"$!D(*\"\"": 5410,
      ",&!(": 5411,
      ",$-*.$(!$)-*": 5412,
      "\"&\"#)-*": 5413,
      "\"#+\"$%\"&\"\"\"$A*\"\"&*": 5414,
      "!!!()!$(*(*!$(*)-": 5415,
      "!$!(!$)-*": 5416,
      "\"&\"\"\"\"\"&!#)-*": 5417,
      ",#!!8&$!*": 5418,
      "\"#\"\"\"\"\"#*!!&": 5419,
      "4!)!4\"1\"\"\"\"\"1*": 5420,
      "!-!$)-*!$!*$!*!*": 5421,
      "!\"#\"\"\"\"\"#*(#": 5422,
      "!-\"#\"\"\"&+\"\"\"$": 5423,
      "\"&\"0\"1\"\"\"\"\"&1*\"\"#": 5424,
      "\"#\"\"+\"$%": 5425,
      "\"#\"\"\"$-!!": 5426,
      "!-9*": 5427,
      "(!$)-*\"&\"\"\"\"\"&*": 5428,
      "!$A*$A*A*\"\"1": 5429,
      "!.#!!!(#": 5430,
      "\"&\"\"\"$!$A*$A*A*\"\"&*\"\"#": 5431,
      "!$)-*B*)!$": 5432,
      "!!*(": 5433,
      "\"#\"\"\"\"\"#-!": 5434,
      "\"$-*\"&": 5435,
      "\"#\"\"\"$-!!(&": 5436,
      "\"#'\"$": 5437,
      "\"$A*\"\"&\"#)-": 5438,
      "\"#\"\"1\"$\"\"#": 5439,
      "\"1\"\"\"$($!*!*\"\"1*": 5440,
      "!#!!-!!#": 5441,
      "\"1\"\"\"\"\"1*\"\"$": 5442,
      "+\"&\"+": 5443,
      "+\"+&*\"\"#": 5444,
      "2*\"$2*\"\"1": 5445,
      "\"#\"\"\"1\"$\"#*": 5446,
      "\"&\"$!$)-*(": 5447,
      "E$)-*B*!!#": 5448,
      "!$)-*(,$!!!(!$)(*(*": 5449,
      "\"&+\"$%\"1\"\"\"$2*\"\"1*": 5450,
      "-!$!(": 5451,
      "A*\"$A*\"$A*\"$A*": 5452,
      "\"1\"\"\"$(9!!-!!9*\"\"1*": 5453,
      ")/*\"\"#": 5454,
      "\"&++\"1+&": 5455,
      "\"9\"\"\"\"\"9!*": 5456,
      "(D!\"#\"\"": 5457,
      "!-\"#\"\"\"$%+&\"$": 5458,
      "!!,#!": 5459,
      "\"&\"\"\"$!$)-*-*\"\"&*\"\"#": 5460,
      "F$)-*$B*-": 5461,
      "\"#\"\"\"$2*'#": 5462,
      "\"1\"&)-*\"\"#": 5463,
      "\"#\"\"\"\"$!D(*": 5464,
      "!!($!$!*)-*": 5465,
      "!+#\"\"\"$": 5466,
      "!$)-*(#!!!,#!$)-*(#!!!,#": 5467,
      "!$)-*(!!$)-*(.$!!!!(*": 5468,
      "!$)-*(!!$)-*(.$!!!(!$)(*(*": 5469,
      "!&!!!($!$)-*": 5470,
      "/$)-*$)-*-*\"\"": 5471,
      ".$-*,$-*,#-": 5472,
      "\"1\"\"$%\"9\"\"\"\"\"9*": 5473,
      "!1)(!!(": 5474,
      "\"$!$)-*-!*": 5475,
      "!!!(!!!(": 5476,
      "\"9*\"1*": 5477,
      "\"&\"1\"$+": 5478,
      "(!$)-*\"#\"\"\"\"\"#*": 5479,
      "\"&\"$)-*0": 5480,
      "\":\"\"\"\"\":*!!9*": 5481,
      "(!$)-*!(!$)-*,$!\"#\"\"\"\"\"#*": 5482,
      "\"1\"\"9\"$\"\"1-!*($!*": 5483,
      "(&!!($!*!!&*": 5484,
      "\"1\"$\"\"\"\"1": 5485,
      "!$!*$!*!*\"\"#*": 5486,
      "!9)!!$)-*": 5487,
      "\"$3*\"$3*": 5488,
      "+#\"+\"$!*\"#": 5489,
      ",1!-!$)-*.1&*-!-9*\"\"": 5490,
      ",$($!*!*": 5491,
      "!\"#\"\"\"$!$A*$A*A*\"\"#": 5492,
      "!$!*!*!$": 5493,
      "!!(#!!!!#*": 5494,
      "!!6&$-*": 5495,
      "4!&)!5": 5496,
      "!4!#)!5": 5497,
      "\":+\"\"": 5498,
      "-)!$-*!!!!": 5499,
      "\"#\"\"\"&\"$\"#": 5500,
      "!\"#\"\"\"\"\"#-": 5501,
      "!\"#\"\"$!*+$": 5502,
      "!6$-*$": 5503,
      "4!&)(5": 5504,
      "!&!!1!!$!&*!!#!1": 5505,
      "!-\"#\"\"\"\"&\"#!$)-*\"#\"$-*\"1\"$\"$-*\"#!&)-*!8$-*$": 5506,
      "\"+&!*\"\"#": 5507,
      "!!!!$)-*(#": 5508,
      "\"1\"\"9\"\"\"\"": 5509,
      "-)!$!-": 5510,
      "!\"#\"$-": 5511,
      "()!$(*()!$(*(#": 5512,
      "!!-\"#\"\"\"$!!(!$)-*": 5513,
      "\"1\"\"\"\"\"1*\"\"\"&#": 5514,
      "\"#\"%&": 5515,
      "*(4()!4": 5516,
      "!(&!!!!!&*": 5517,
      "\"1\"+\"+": 5518,
      ">Bs$B*$B*": 5519,
      "!&!($": 5520,
      "!+#+++\"#": 5521,
      "-!$!-": 5522,
      "\"#\"\"\"$(&!!-!!&*": 5523,
      "!!!!-\"#\"\"\"$": 5524,
      ".$!-*-.$": 5525,
      "\"&\"\"+\"\"&*!!#": 5526,
      "\"&-.#": 5527,
      "!$)-*!$)-*": 5528,
      "!!(!!": 5529,
      "!!$!*$!-*": 5530,
      "-,$-.&": 5531,
      "\"&\"$)-*0#": 5532,
      "!!!!$(": 5533,
      "*(#!!($/$)-*$)-*": 5534,
      "!)!#!$)-*-,&": 5535,
      "\"=": 5536,
      "!!\"9\"$": 5537,
      "\"#\"\"7\"#": 5538,
      "\"&\"$(!": 5539,
      "!$)-*-*\"\"&*": 5540,
      "!$A*$A*A*+#": 5541,
      "\"\"9\"$": 5542,
      "!$)-*!-*": 5543,
      "\"9*\"\"&": 5544,
      "!!(:": 5545,
      "!\"#\"\"\"$!+&": 5546,
      "!\"#\"&\"$": 5547,
      "\"$-*\"1": 5548,
      "!!$!*!*\"\"#": 5549,
      "\"$A*\"&*\"#": 5550,
      "!.$-*.#": 5551,
      ">I>I": 5552,
      "8$-*$!$)-*-!*": 5553,
      "\"\";": 5554,
      "+#\"\"$%": 5555,
      "!!$!*!!!.$!*": 5556,
      "!!$)-*($!!": 5557,
      "\"&*'#": 5558,
      ",&!!.1": 5559,
      "!)!!$)-*(#": 5560,
      "!)!9*": 5561,
      "!!6#$-*": 5562,
      "-)!$!/\"#++\"$%": 5563,
      "+$-*": 5564,
      "-\"#\"\"\"\"$%": 5565,
      "\"#\"\"\"+#": 5566,
      "!!!!1*\"\"#": 5567,
      "A*\"$A*\"\"": 5568,
      "!!(!!1*\"\"": 5569,
      "\"#++$": 5570,
      "!!$)-*(4()!4": 5571,
      "\"&\"\"$!(": 5572,
      "!($!*\"#\"\"\"$%": 5573,
      "!\"#\"0\"&\"\"\"\"\"#&": 5574,
      "8:$!*!!": 5575,
      "\"1\"$!*\"\"$!*": 5576,
      "!$\"&\"\"\"\"\"&*\"&\"\"\"\"\"&*!!#": 5577,
      "A\"#\"\"\"$(": 5578,
      "\"#\"\"\"\"\"#(": 5579,
      "\"$)-*\"$%": 5580,
      "!$)-*(#&": 5581,
      "!$)-*(,$!\"&\"\"\"\"\"&*": 5582,
      "!\"#\"\"\"$%\"&\"\"\"\"\"&*\"\"#*": 5583,
      "$A*$A*A*\"\"": 5584,
      "\"&\"\"\"$%\"1\"\"\"\"\"1%": 5585,
      "'\"9+1*": 5586,
      "\"&\"$A*\"\"$": 5587,
      "\"#\"$(*+$!\"&\"\"\"\"\"&*\"$)-*0\"#)-": 5588,
      "$!!$!*!*": 5589,
      "/)!$": 5590,
      ">-)!$B*": 5591,
      "!!.$-": 5592,
      "!!$)-*-!!": 5593,
      "!!$)-*\"#\"\"\"$(!$)-*": 5594,
      "\"\"#&*": 5595,
      "!\"#\"\"\"$-!!": 5596,
      "!1)!!$)-*": 5597,
      "!($!*.#": 5598,
      "!$)-*(!\"&\"\"\"\"\"&*": 5599,
      "!$)-*(!!$)-*(#!!!,#": 5600,
      "!!#!$)-*(": 5601,
      "\"&\"$-": 5602,
      ",&!*": 5603,
      "\"$!*\"\"&": 5604,
      "!-!$)-*6#&": 5605,
      "!!!$)-*(#*": 5606,
      ",$-,1": 5607,
      "\"#\"\"\"$-*\"\"#-": 5608,
      "\":\"\"\"+\":*": 5609,
      "8#$!": 5610,
      "!!.$(": 5611,
      "\"&\"\"$/$)-*$)-*(1!!!!": 5612,
      "\"#\"\"\"$!$A*$A*A*": 5613,
      "\"#\"\"\"$-*\"$": 5614,
      "(!$)-*\"#\"\"\"\"&": 5615,
      "!)!!&": 5616,
      "!!(#!!!!!#*": 5617,
      "\"#\"\"\"$-!$A*$A*A*\"\"#*": 5618,
      "\"&\"\"\"$-!$A*$A*A*\"\"": 5619,
      "!!$!*(!!$-*": 5620,
      "!#*(": 5621,
      "\"&\"\"\"\"\"&!$)-*(": 5622,
      "-)!$-*!!": 5623,
      "!\"#\"\"\"$%+&+\"$": 5624,
      "\"&\"\"\"\"10": 5625,
      "!!,&#": 5626,
      "!!$!*)!!": 5627,
      "\"&\"\"$-!*\"\"$-!*": 5628,
      "++\"#/!!$)-*(": 5629,
      "\"&\"++1\"$(": 5630,
      "!$!D(*)!$(*-": 5631,
      "\"&\"\"\"$(!$!*)-*": 5632,
      "\"&\"\"$-!*\"\"": 5633,
      "\"1\"\"$(": 5634,
      "\"&+\"$%\"1\"\"\"$A*\"\"1*": 5635,
      "!)!6#$!*": 5636,
      "'&*+#": 5637,
      "!!!+#\"\"+\"#": 5638,
      "\":\"\"\"\"$A*": 5639,
      "+\"\"#2": 5640,
      "\"#\"$-*\"\"": 5641,
      "4()!$4(*": 5642,
      "!$)-*((!$)-*": 5643,
      "\"&\"\"\"\"\"&(!$)-*": 5644,
      "!!-\"#\"\"\"$-": 5645,
      "\"&++\"$(": 5646,
      "(!$)-*,$!!!!": 5647,
      "!-\"#\"\"$-!": 5648,
      "\"#\"\"\"&\"$4!)!4": 5649,
      "\"#\"\"\"$($!*!*\"\"#": 5650,
      "!\"#\"+\"$": 5651,
      "+$!9": 5652,
      "!$)-*($!*,$": 5653,
      "\"#\"\"\"$(&!!($!$)-*": 5654,
      "\"1*\"\"&*\"#": 5655,
      ";!!691": 5656,
      "(!$)-*!&$": 5657,
      "!!$)-*\"#\"\"\"\"\"#": 5658,
      "!!!81$!*": 5659,
      "!-\"#\"\"&+\"+": 5660,
      "!$)-*(.$!\"#\"\"\"\"\"#*.$-*": 5661,
      "\"\"\"#(": 5662,
      "-)!#\"&\"\"\"\"\"&!$)-*": 5663,
      "\"#\"\"$2*\"$": 5664,
      "(!$)-*.$!!$)-*-*": 5665,
      "\"#\"\"\"$-!\"&\"\"\"\"\"&*\"\"#": 5666,
      "9*!1*": 5667,
      "\"$%\"9\"+": 5668,
      "!$)-*(,$!\"#\"0\"&\"\"\"\"\"#&*": 5669,
      "!)!$!-*": 5670,
      "+#%\"#\"\"\"$2*\"\"#": 5671,
      "!#!!($!\"&\"\"\"\"\"&*!!#": 5672,
      "!!(1!!($": 5673,
      "\"#\"\"$-*\"$-*\"$-*\"#": 5674,
      "!!1!!$!#*": 5675,
      "!!$)-*(\"#\"\"\"\"$": 5676,
      "!!$)-*-8#&": 5677,
      "(\"#+\"\"\"$": 5678,
      "(\"#+\"\"$2*": 5679,
      "+\"$(*\"&\"\"#-!": 5680,
      "!$)-*!$2*": 5681,
      "\"1\"\"\"71*++#&": 5682,
      "!!#$!*!!$)-*!&)!$": 5683,
      "!+#\"$(": 5684,
      "+1++": 5685,
      "!$)-*($,$!*!-*": 5686,
      "\"&\"\"+\"1\"\"$2*\"\"\"&1*": 5687,
      "\"&\"\"\"\"$!$)-*-*\"&*": 5688,
      "\"1\"$)-*0\"$(*": 5689,
      "\"\"+1": 5690,
      "!-#*": 5691,
      "!\"#\"\"\"$%\"&+\"$": 5692,
      "!!(1!$)-*": 5693,
      ".$!-F$-*$)/*": 5694,
      "\"&\"$A*\"\"\"\"&2*": 5695,
      "%\"&\"\"\"\"\"&": 5696,
      "!!(!$)/*(": 5697,
      "!&!\"1\"\"\"\"\"1": 5698,
      "!-\"#\"\"&+\"$(1": 5699,
      "!\"#\"\"$!*+$%": 5700,
      "+&\"+\"+&*": 5701,
      "-.1-89$!*!!": 5702,
      ";!!691.;:*": 5703,
      "(4()!4": 5704,
      "\"1\"\"$!$A*$A*A*\"\"$!$A*$A*A*": 5705,
      "($/$)-*$)-*": 5706,
      "!-\"#\"\"\"\"\"#!#": 5707,
      "-)E$B*\"#\"+&\"$+#*": 5708,
      "!-\"#\"\"&\"$\"\"#-*": 5709,
      "\"#\"'\"$(": 5710,
      ",$-*!-": 5711,
      "!-\"1\"\"\"$": 5712,
      "A*\"\"+\"&\"\"#-!!!(#": 5713,
      "!+#\"$/": 5714,
      "(D!\"#\"\"\"$(": 5715,
      "\"&\"\"\"\"$A*\"&*!!#": 5716,
      "!-\"#\"\"$(!$!*": 5717,
      "()!$!*": 5718,
      ">-)": 5719,
      "!!-\"#\"\"\"\"$": 5720,
      "!!$!*$!*!": 5721,
      "!\"#\"\"\"&\"$\"#*-!-&*": 5722,
      "\"+&*!#": 5723,
      "-!#$!*!": 5724,
      "!!!(1!!($": 5725,
      "!\"#\"\"\"$!*\"$": 5726,
      "!\"&\"\"\"$2*\"$2*\"&*": 5727,
      "!&)!": 5728,
      "\"1\"\"\"\"\"1\"&)-*": 5729,
      "+&!#": 5730,
      "\"#++\"$(": 5731,
      "\"1\"\"\"$!*\"\"": 5732,
      "\"&+\"1\"$'&*": 5733,
      "-\"&\"$": 5734,
      "\"&\"%#": 5735,
      "!!$!*,#": 5736,
      "(!$)-*,$!\"#\"\"\"\"\"#*(": 5737,
      "!!!$\"&\"\"\"\"\"&*": 5738,
      "!$)-*(,$!!$!*!*": 5739,
      "\";0": 5740,
      "(!$)-*.&!!!(&!$)-*.$": 5741,
      "!4!$)(4": 5742,
      "%\"#\"\"$": 5743,
      "!!$)-*\"#\"$!*": 5744,
      "!!!$!1*": 5745,
      "+\"+1": 5746,
      "\"#+\"\"+#": 5747,
      "\"&\"+$%\"1\"\"\"\"\"1*+\"&%": 5748,
      "!!!!!!&*": 5749,
      "\"#\"+\"$": 5750,
      "!-\"#\"\"&\"1\"$": 5751,
      "+7&*!!#": 5752,
      "!\"#\"\"$!*+\"$(": 5753,
      "(!#!!($": 5754,
      "\"#'\"&\"\"\"\"\"&\"#": 5755,
      "\"&\"\"\"\"\"&\"#)-*": 5756,
      "!\"#\"\"\"$!*\"$(!$)-*": 5757,
      "\"#\"\"$-*\"&\"$\"#*": 5758,
      "!!!$)-*-!": 5759,
      "!$)-*-*\"\"&": 5760,
      "!!!$!$(*)-*": 5761,
      "+++#": 5762,
      "!$A*$A*A*\"\"1*": 5763,
      "!!,$(": 5764,
      "\"#\"\"\"$(/$!*$)-*)-*": 5765,
      "\"&\"\"\"$2*\"\"&2*\"\"#": 5766,
      "-*\"$-*\"#": 5767,
      "!!)!:": 5768,
      ",<-*": 5769,
      "!#&!!1!!$!!$!1*!#*!&*": 5770,
      "\"1\"\"$-!": 5771,
      "!\"#\"\"\"\"\"#-!": 5772,
      "\"#\"$A*\"$A*": 5773,
      "/$)-*$)-*(&!!($": 5774,
      "!$)-*-!*\"\"#": 5775,
      "!!8#$-*!$)-*-!\"&\"#\"\"#+$\"&)-*!": 5776,
      "!4!)!$4!*": 5777,
      "!!6;": 5778,
      "!9$": 5779,
      "\"&\"$%\"1\"\"\"$A*\"\"1*": 5780,
      "\"1++++1": 5781,
      "!!9!!$!1*!!&": 5782,
      "\"#\"\"\"&+\"$(": 5783,
      "!#!&": 5784,
      "-)!$!=#": 5785,
      "$!A*": 5786,
      "-)!$(!\"#\"\"\"7#*": 5787,
      "!!6$-*$": 5788,
      "(D!\"#\"\"\"$-": 5789,
      "!&$!!($!": 5790,
      "(!$)-*,$!\"#\"\"\"$-*\"\"#*(!$)-*,$!-*": 5791,
      "6:$!*": 5792,
      "\"&(*\"\"#": 5793,
      "\"1\"\"\"\"\"13*": 5794,
      "!-\"#\"\"\"$!!&": 5795,
      "!-\"#\"\"\"$4!)(4(": 5796,
      "!\"#++\"$%": 5797,
      "\"&\"%#+": 5798,
      "\"&\"#!!!!&": 5799,
      ",1!*": 5800,
      "!$)-*(#!!&": 5801,
      "\"1+\"\"$%": 5802,
      "+1\"\"\"+1*": 5803,
      "!$)-*(&!!!.&": 5804,
      "!!\"#++\"$": 5805,
      "\"&\"$\"#!*": 5806,
      "!-!$)-*(,$!$)-*(#!!!,#": 5807,
      "-&*,$!*.$-.&-,$!*!,$($!*!*,&-*6$!*$-*!.$!*": 5808,
      "\"\"\"&+#": 5809,
      "\"&\"\"\"\"=&": 5810,
      "!!(!!&": 5811,
      "(/$)-*$)-*\"#\"\"\"$(!$)-*": 5812,
      "!!(&!": 5813,
      "!!81$!*.$": 5814,
      "\"#\"\"\"\"1": 5815,
      "!!$!*/": 5816,
      "\"$($!*": 5817,
      "\"9\"\"\"$!$)-*(": 5818,
      "-)!#!-": 5819,
      "+\"+\"1&*\"\"#": 5820,
      "!.&!!,#": 5821,
      "\"9\"\"$!$)-*(": 5822,
      "\"#+\"$%\"&\"\"\"$2*\"\"&*": 5823,
      "!!!!!9*\"\"": 5824,
      "E$!*$!*!!": 5825,
      "!69": 5826,
      "$\"&\"\"\"\"\"&*\"&\"\"\"\"\"&*": 5827,
      "\"#+\"+\"&0": 5828,
      "\"#\"+$%\"&\"\"\"\"\"&*+\"#%": 5829,
      "\"&\"\"\"1+\"\"$%\"9\"++$!*\"9*": 5830,
      "!-\"#\"\"$(*\"$2*\"\"#": 5831,
      "(\"#\"\"\"\"$": 5832,
      "=9": 5833,
      "+1+&*\"\"#": 5834,
      "-)!#!/": 5835,
      "!!$)-*-*!$)-*-": 5836,
      "(D!\"#\"$": 5837,
      "!!&*\"\"#*": 5838,
      "-*\"\"\"#": 5839,
      "-)\"#\"$%": 5840,
      "1*\"\"&*!#": 5841,
      "\"&+\"1\"\"\"\"\"10&*\"\"#": 5842,
      "\"&\"\"$2*\"\"\"&2*": 5843,
      "*(#!!($\"&\"\"\"\"\"&*!!#": 5844,
      "\"1\"\"\"$(*\"\"1*": 5845,
      ".9!!81$!*6#$!*!!&": 5846,
      "\"#+++&": 5847,
      "\"$)-*\"$!$)-*(": 5848,
      ".$-*.&": 5849,
      "\"1\"\"\"$%+9": 5850,
      "!!61#": 5851,
      "+#\"\"$!$)-*": 5852,
      "8$!$)-*-!*$\"1\"\"9\"$\"\"1-!*($!*": 5853,
      "\"&\"\"\"$!-*": 5854,
      "\"#\"\"\"\"\"#-*": 5855,
      "!!$)-*B": 5856,
      "-)!$-*4!)!4": 5857,
      "F$)-*$-*-*\"\"#": 5858,
      "!$)-*(.$!!!!(*!$(*)-": 5859,
      "\"#\"\"\"$E$)-*B*7#": 5860,
      "+\"1+": 5861,
      "\"\"+&": 5862,
      "!!$!*\"#+\"$": 5863,
      "-)!$-*\"#\"\"\"&\"$\"#*": 5864,
      "!!$!*$!*(#": 5865,
      "!-\"#\"\"\"$%\"&7": 5866,
      "4!$!*)(4(": 5867,
      "\"&\"\"$-*\"$-*\"$-*": 5868,
      "+&\"\"$!*\"$)-*0\"&)-*": 5869,
      "!$)-*-*0": 5870,
      "!-\"#\"\"\"$%\"&\"+": 5871,
      "\"\"\"\"#1*": 5872,
      "!.1-": 5873,
      "/$(*$)-*)-*\"\"#*": 5874,
      "+\"&1*(#": 5875,
      "$!1!!1*\"#&": 5876,
      "'&*!#": 5877,
      "(&*\"\"#": 5878,
      "!$!\"&\"\"\"\"\"&*": 5879,
      "!$)-*(!$)/*(": 5880,
      "+1+\"\"": 5881,
      "!\"#+\"\"\"\"#": 5882,
      "!($!\"1\"\"\"\"\"1*": 5883,
      "(!$)-*,$!!$!*!*(!$)-*,$!!!(!$)(*(*": 5884,
      "\"&++\"$/*": 5885,
      "\"&\"\"\"$(/$!*$)-*)-*": 5886,
      "\"#\"\"\"$2*\"$2*\"#*(": 5887,
      "0#*!$!*!": 5888,
      "\"1\"\"$A*\"$": 5889,
      "!#!!!($": 5890,
      "(!$)-*!#$": 5891,
      "!!!(/$)-*$)-*": 5892,
      "-)!$(/$)-*$)-*": 5893,
      "\"#\"\"&\"\"\"$": 5894,
      "!!-!$)-*\"#\"$%": 5895,
      "!\"#+\"\"+#": 5896,
      "\"1\"\"\"$2*\"\"1*!!&*": 5897,
      "!!\"#+7": 5898,
      "!\"#\"\"\"\"+#*": 5899,
      "!6$!*$": 5900,
      "+&\"\"\"\"&": 5901,
      "!-\"#\"\"\"$4!)!4!$)-*(": 5902,
      "\"1\"+\"\"\"1": 5903,
      "\"#+\"\"\"+#": 5904,
      ">k": 5905,
      "\"#\"\"$!$!*$!*!*": 5906,
      "2*\"\"#2": 5907,
      "+\"$!*\"#": 5908,
      "F$)-*$B*B*": 5909,
      "-)!#(!$)-*4!$)!4\"&\"++1\"$(": 5910,
      "'\"$": 5911,
      "!$)-*(\"#\"\"\"$2*\"\"#": 5912,
      "\"&\"\"\"\"\"&+#*": 5913,
      "\"1\"\"\"\"\"1*\"\"#&": 5914,
      "!!-!$)-*\"#\"\"\"$(": 5915,
      "!\"#\"\"\"\"\"#(!$)-*": 5916,
      "\"1\"\"\"\"9\"\"\"\"\"19*\"\"": 5917,
      "6:$!!*!)!!(": 5918,
      "\"&!$(*)-*": 5919,
      "!$)-*-*+#": 5920,
      "1*\"\"\"#-": 5921,
      "!!/#": 5922,
      "!$)-*($!!$)-*(": 5923,
      "\"1\"\"\"+1": 5924,
      "$-#*": 5925,
      "\"#+\"&\"\"\"\"\"&7#": 5926,
      "-,$!-*.$-*.#-": 5927,
      "!#!!!(#": 5928,
      "\"&\"\"\"$!D": 5929,
      "!!-!!1*\"\"": 5930,
      "!-\"#\"\"$A*\"\"": 5931,
      "\"1\"\"$3*": 5932,
      "\"1\"\"\"$2*\"\"1*\"\"&": 5933,
      "3*\"\"#&": 5934,
      "!!!!!9*!!1*": 5935,
      "\"$3*\"#*": 5936,
      "!$)-*(!!$)-*(.$!!$(*)-*": 5937,
      "!E#$!*": 5938,
      "--#": 5939,
      ".$-*,$(*": 5940,
      "\"1+\"\"\"$": 5941,
      "+\"&(#": 5942,
      "!\"#\"\"$%\"&+0": 5943,
      "\"$)-*+1\"\"\"\"": 5944,
      "\"&\"\"$%\"1\"+9": 5945,
      "\"1+\"$(*+\"$(*": 5946,
      "6:$!!*!)!!(;!!691.;:*": 5947,
      "-\"1\"\"\"$": 5948,
      "\"$-*\"$%": 5949,
      "(/$)-*$)-*\"#\"\"\"\"\"#": 5950,
      "\"#++\"$/": 5951,
      "!$\"&\"\"\"\"\"&*\"&\"\"\"\"\"&*": 5952,
      "+9\"\"$!*\"$)-*0\"9)-*!.1-F$)-*$-*-!,1-.$": 5953,
      "!$!&*": 5954,
      "\"&\"\"$!$!*!*": 5955,
      "!$)-*(,$!!!!(*": 5956,
      "!!,$!*,$(!$)-*,$!\"#\"\"\"$-*\"\"#*": 5957,
      "\"#\"$2*\"\"\"\"#2*": 5958,
      "+\";": 5959,
      "+'\"#": 5960,
      "!$)-*\"#\"\"\"$": 5961,
      "\"#\"\"\"&+\"+\"$(": 5962,
      "\"&++\"$(!$)-*": 5963,
      "!$)-*(1!!!,1": 5964,
      "\"$!$A*$A*A*\"1*": 5965,
      "\\$-*-*": 5966,
      "\"$A*\"\"1": 5967,
      "$(!$)-*": 5968,
      "!!$!*($!$)-*": 5969,
      "*(#!!!&$!!#*": 5970,
      "(!$)-*($!*": 5971,
      "!!/&": 5972,
      "!!#$!*()!$(*()!$(*(#": 5973,
      "!$)-*(.$!!$!*!*!$)-*(,$": 5974,
      "61&": 5975,
      "!$)-*(/$)-*$)-*!#!!#": 5976,
      "!!$!*\"#+": 5977,
      "!\"#+\"&\"\"\"\"\"&+#": 5978,
      "!+&++": 5979,
      ".:!!!(:": 5980,
      "!!$!*,$(!$)-*": 5981,
      "!1)!!.98:": 5982,
      "4!)!95": 5983,
      "\"&\"$'": 5984,
      "\"&\"\"\"\"\"&*\"#*": 5985,
      "\"$!*\"#&": 5986,
      "\"9\"\"\"\"\"9-!*": 5987,
      "\"#\"\"&\"\"": 5988,
      "!.#,&": 5989,
      "!-\"#\"\"\"\"\"#-": 5990,
      "\"1\"+$!": 5991,
      "\"\"\"+\"19*": 5992,
      "-)E$B*\"#\"\"$": 5993,
      "\"&\"\"\"$(\"1+\"\"9": 5994,
      "\"1\"\"\"\"$2*\"12*": 5995,
      ",#!!,&,1,$": 5996,
      "69&": 5997,
      "!.9!*": 5998,
      "\"&\"\"\"\"1\"\"\"\"$\"&1*": 5999,
      "\"&\"$A*\"\"1\"$)-*\"$!$)-*-*\"+": 6000,
      "!F$)-*$-*-*": 6001,
      "($-*": 6002,
      "!$)-*(!!!": 6003,
      "-!*!#": 6004,
      "!(#!!!,#": 6005,
      "!-\"#\"\"\"$%\"&\"\"1": 6006,
      "\"&\"\"\"$-!!(1!!!!": 6007,
      "\"#\"\"&\"\"\"\"\"&0#": 6008,
      "\"#\"\"$(!$)-*\"&\"\"$%": 6009,
      "\"&\"\"\"\"$!$)(*(*\"&*": 6010,
      "\"&*\"\"&": 6011,
      "!(,#": 6012,
      "!-\"#+\"\"\"\"#": 6013,
      "\"+\"&+#": 6014,
      "!-\"#\"\"\"$!-": 6015,
      ".$!*,$!*": 6016,
      "-)!$(!!\"#\"\"\"\"\"#*": 6017,
      "\"1\"\"$E$)-*B*\"\"": 6018,
      "+\"#!$)-*(": 6019,
      "-)!$.#": 6020,
      "+19*": 6021,
      "(!$!*)-*\"\"1*": 6022,
      "(!$)-*(&": 6023,
      "/&*\"\"#": 6024,
      "\"&\"\"\"\"$(*": 6025,
      "8&#!*": 6026,
      "!$)-*(.$!!$!*!*!$)-*-": 6027,
      "\"1\"\"$!*\"\"$!*": 6028,
      "!$)-*(&!$!$)-*B*)!$": 6029,
      "\"9\"\"$-*\"\"\"9": 6030,
      ",$!!!$)-*-*(!$)-*": 6031,
      "4!*": 6032,
      "!$)-*!!$": 6033,
      "\"#\"\"+&": 6034,
      "\"#\"\"\"\"\"#!$)-*-": 6035,
      ".#!*": 6036,
      "!!!#$!!*": 6037,
      "!-\"#\"\"\"\"\"#(#!!($!$)-*": 6038,
      "\"&'\"$!$)-*(": 6039,
      ")/*0": 6040,
      "!\"#\"\"\"\"$!*": 6041,
      "\"$E$)-*B*\"9*\"$-": 6042,
      "\"$)/*0": 6043,
      "!1)!$!*.$-!$)-*": 6044,
      "\"9\"$2*\"\"\"\"9": 6045,
      "!4!$)!4": 6046,
      "\"&A*\"\"#": 6047,
      "!*\"+": 6048,
      "!$)-*,1": 6049,
      ",$!$)-*(": 6050,
      "\"&\"\"\"$4!)!4": 6051,
      "\"$%\"1\"\"+\"\"1*": 6052,
      "\"#\"$(!$)-*": 6053,
      "!!$)-*(.$!!!!(*": 6054,
      "\"1\"$!*+7": 6055,
      "3>3>": 6056,
      "!-\"#\"\"\"&0\"\"$": 6057,
      "!)!#!$)-*-.&": 6058,
      "\"$)-*\"\"\"&\"\"$/$)-*$)-*(": 6059,
      "(1*": 6060,
      "!$)-*!!!$)-*(": 6061,
      "\"&0\"1\"\"\"\"\"1": 6062,
      "!!!#$-*": 6063,
      "!!!!&$": 6064,
      "!/\"#++\"$": 6065,
      "\"#\"\"\"&\"$4!)!4\"1\"\"\"\"+1*": 6066,
      "\"#\"\"\"&\"\"\"\"\"&+#": 6067,
      "\"1\"\"\"$3*\"\"&": 6068,
      "!$!*$!*!!!": 6069,
      "\"$-*+": 6070,
      "!\"#\"\"\"\"\"#*!$)-*-": 6071,
      "\"$)-*0\"#)-*": 6072,
      "$!$)-*(/$)-*$)-*": 6073,
      "!$)-*(!$!!!$)-*-*": 6074,
      "\"#\"\"=$": 6075,
      "!!!$!#*(&": 6076,
      "+\"#/": 6077,
      "-!-:": 6078,
      "(!$)-*.&!!!(&!#)-": 6079,
      "-\"#\"\"\"$2*\"\"#": 6080,
      "!!4!)!4": 6081,
      "!!\"#\"\"\"$(": 6082,
      "!$)-*,#": 6083,
      "\"&\"\"+$": 6084,
      "!-!$)-*6#$!*": 6085,
      "\"$-*\"$2*": 6086,
      "!!$)-*-!!$)-*(": 6087,
      "!$)-*($!!$)-*-*": 6088,
      "F$)-*$-!": 6089,
      "()!#(": 6090,
      "!\"#\"\"$A*\"\"\"#": 6091,
      "0\"&+$!!!*\"#)-": 6092,
      "!4!)!#5": 6093,
      "+\"$(&!!($!$)-*": 6094,
      "!(#!!-!!#*": 6095,
      "-)!$-*,$": 6096,
      "!!!!!#*(": 6097,
      "+\"+$!*": 6098,
      "\"&\"\"\"$-*\"\"&*\"#": 6099,
      "!&)(-!$": 6100,
      "(!$)-*,$!!!!(*(!$)-*,$!!!(!$)(*(*": 6101,
      "!-\"#\"\"$-!*\"\"$%": 6102,
      "\"9\"\"\"$-!*\"\"9*": 6103,
      "\"$/!": 6104,
      "\"&\"\"\"1+\"+\"$(": 6105,
      "\"1\"\"\"$E$)-*B*": 6106,
      ",&-.$": 6107,
      "+\"1\"&*\"\"#": 6108,
      "-!!-1*": 6109,
      "\"$-!!&": 6110,
      "!!-\"#\"\"\"$/$)-*$)-*(": 6111,
      "\"\"$!*\"$)-*0\"1)-*": 6112,
      "&!!($": 6113,
      "!$!*-!$)-*": 6114,
      "!/!": 6115,
      "\"$!*++&": 6116,
      "+\"&!*": 6117,
      "!!($!\"1\"\"\"\"\"1*": 6118,
      "!!/\"#+": 6119,
      "\"&\"\"\"$A*\"$2*\"&*": 6120,
      "!!$)-*(.$!\"#\"\"\"\"\"#*!$)-*(.$!!!$(*)-*!$)-*(.$!-*!$)-*(.$!!!!(*": 6121,
      "'\"&\"\"\"\"\"#&": 6122,
      "\"#\"\"\"\"\"#%&": 6123,
      "!$)-*(.$!\"1\"\"\"\"\"1*": 6124,
      "!-\"#\"\"\"$!!": 6125,
      ".&!-": 6126,
      "!!6$!*$": 6127,
      "\"$)-*7\"#&": 6128,
      "\"#\"\"\"&0+\"$%": 6129,
      "!\"#7\"$%": 6130,
      ",#!!,$(": 6131,
      "4!$-*)!4": 6132,
      "\"M": 6133,
      "!!!\"#+\"$": 6134,
      "++:*": 6135,
      "!!$)-*-*\"#": 6136,
      "!!!#$!*": 6137,
      "\"1\"\"\"$A*\"\"1*\"\"&": 6138,
      "!-\"#\"\"\"&\"1\"$": 6139,
      "\"&+\"$!*\"\"$!*": 6140,
      ")!$4!D(*": 6141,
      "@*\"\"$": 6142,
      "!$)-*\"&\"$": 6143,
      "(!$)-*\"#\"\"\"\"$": 6144,
      "/$)-*$)-*\"&\"\"\"\"\"&*\"\"#": 6145,
      "!$)-*-*\"\"\"#": 6146,
      "!1$!*": 6147,
      "+1\"\"$!*\"$)-*0\"1)-*": 6148,
      "*(#!": 6149,
      "\"&\"\"\"$%\"1\"\"\"\"\"1*": 6150,
      "\"#\"$-*\"\"$-*": 6151,
      "!!-!$)-*!#!!($!$)-*": 6152,
      "4!)!4!D": 6153,
      "!<": 6154,
      "/)": 6155,
      "!!$!*!#": 6156,
      "-)!#!$2*": 6157,
      "!$)-*(.$!!!(!$)(*(*!$)-*(#!!!,#": 6158,
      "+1*\"\"&*!!#": 6159,
      "\"1\"++$!*\"1*": 6160,
      "!\"#\"\"\"\"&\"#": 6161,
      "\"=$!": 6162,
      "(!$)-*,$!//!,$": 6163,
      "!-!$)-*!#)": 6164,
      "!$!*$!*!*\"\"&": 6165,
      "!!!$)-*-*\"\"#": 6166,
      "!!!+#\"+": 6167,
      "\"&\"$-*\"\"$-*\"\"&": 6168,
      "!!8&$!*.$!!61$!*": 6169,
      "\"&\"\"\"1+\"\"$%\"9\"++$!*\"9*+\"1\"&*\"#": 6170,
      "!!\"#\"\"&": 6171,
      "!$)-*(!&$": 6172,
      "!!!!!9": 6173,
      "!(!!(": 6174,
      "!(!$)/*(": 6175,
      "\"&\"\"\"$!$)-*(!": 6176,
      "-)!$!+#\"+": 6177,
      "!!$!*!!(!$)-*": 6178,
      ")!4!$": 6179,
      "\"&\"\"$!$)-*-*\"\"": 6180,
      "!$!*!*!!#": 6181,
      "!!!!!!!!!!!!!!!": 6182,
      "!-\"#\"\"\"$!&!!$": 6183,
      "\"&(*": 6184,
      "!-\"#+\"$": 6185,
      "\"$!*\"\"$": 6186,
      "\"\"1\"\"\"\"": 6187,
      "!$)-*(&!!!": 6188,
      "\"#\"\"\"$-!&!!($": 6189,
      "\"&+\"$%\"1\"\"\"'1*": 6190,
      "\"&\"\"\"\"\"&%\"&\"\"\"\"\"&#": 6191,
      "\"&\"\"\"$3*\"\"&*\"#": 6192,
      ")E$": 6193,
      "\"$2*\"\"#2": 6194,
      ">o>o": 6195,
      "$A*A": 6196,
      ",#!.$": 6197,
      "\"$)-*\"&\"\"\"\"\"#&": 6198,
      "!(!$)-*4!)!4": 6199,
      "!,$\"&\"\"\"\"$2*\"&*": 6200,
      "!!,$!*,$(!$)-*.$": 6201,
      "($!!2*!!2*\"\"#": 6202,
      "!!!!-*": 6203,
      "\"#\"\"\"\"&\"\"\"+\"#&": 6204,
      "!!#$!*!!$": 6205,
      "!!!!+#\"$(*": 6206,
      "!\"#\"\"$2*\"\"\"#": 6207,
      ",$-!$)-*\"&\"\"\"\"\"&*6&$-*!,$-!$)-*": 6208,
      "!!#$!*!!!$!(&!!($\"1\"\"\"$!$)-*(/$)-*$)-*\"9\"\"\"$": 6209,
      "7+1*": 6210,
      "!(.$": 6211,
      "\"&\"\"\"\"\"&*\"\"&": 6212,
      "\"&\"\"\"\"\"&*\"\"\"#": 6213,
      "!!-\"#\"\"\"\"\"#%": 6214,
      "\"&\"#%": 6215,
      ",1!!8&#!": 6216,
      "\"&\"\"\"+\"&+#": 6217,
      "!$)-*(.$!!!(!$)(*(*!$)-*(.$!\"#\"0\"&\"\"\"\"\"#&*": 6218,
      "\"#'\"\"\"#": 6219,
      "!!-!!9*\"\"1": 6220,
      "\"#\"\"$2*\"\"\"#2": 6221,
      "!$)-*(,$!$)-*(.$!\"#\"\"\"\"\"#*!$)-*(,$!$)-*(.$!!$)-*-*": 6222,
      "/$)-*$)-*\"#\"\"\"$A*\"\"#": 6223,
      "!$)-*-6#&!": 6224,
      "!\"#\"\"$A*\"$": 6225,
      "!!$!*$!*!#": 6226,
      "!(&!!!1$!!&*": 6227,
      "!.#-!$)-*": 6228,
      "\"#\"\"\"\"&0": 6229,
      "*\"\"$2*": 6230,
      "\"$3*\"&*": 6231,
      "\"1\"\"\"\"$2*\"1": 6232,
      "=&B": 6233,
      "!6#&!": 6234,
      "!($!!\"1\"$0\"9\"\"\"\"\"19*": 6235,
      "4()\"&5": 6236,
      "!(&!!!#!!&": 6237,
      "\"$-*+#": 6238,
      "\":\"\"\"\"+:*": 6239,
      "!$)-*($!*!!$)-*($!*": 6240,
      "\"&++\"$/!": 6241,
      "!!\"1\"\"\"\"\"1!&*": 6242,
      "!!$!*)!!!4!$!*)!4": 6243,
      "+\"9\"\"\"\"\"9": 6244,
      "7\"#!": 6245,
      "\"#\"&": 6246,
      "!-!#)!$": 6247,
      "!(1!!!&": 6248,
      "!-\"#\"\"$-!*\"$": 6249,
      "\"#\"+$!&!!&*": 6250,
      "8$!$)-*-!*$\"1\"\"9\"$\"\"1-!*($!*,1": 6251,
      "\"#\"\"\"0#": 6252,
      "!!!!(!$)-*(": 6253,
      "/$)-*$)-*\"&\"\"\"$!*\"\"&*\"\"#": 6254,
      "\"1\"\"\"$-!!": 6255,
      "+\"&1*!!#": 6256,
      "\"#\"\"$%\"&\"\"\"$2*\"\"&*": 6257,
      "!-\"#\"\"\"&\"\"1=$": 6258,
      "\"9\"\"$-!*\"$-!*\"$-!*": 6259,
      "-)/$)-*$!": 6260,
      "1!": 6261,
      "B=#": 6262,
      "\"\"\":\"9*": 6263,
      "!!(\"#+": 6264,
      "!!(1!!!!1*": 6265,
      "+#\"$%": 6266,
      "-)!$(!!$": 6267,
      "!!!!!!!!!!!": 6268,
      "!!$!*$!*\"#\"\"\"$!$)-*(": 6269,
      "-!!-:*": 6270,
      "\"&\"\"1\"$\"\"&#*": 6271,
      "+1\"\"\"$)-*0\"1)-*": 6272,
      "!$-*!$-*!$)-*-": 6273,
      "!$)-*,$-*": 6274,
      "!!!(!": 6275,
      "!\"#\"$%\"&\"\"\"\"\"&*": 6276,
      "!)!!(#!$)-*": 6277,
      "!!!(#!!!!#": 6278,
      "$!!!$)-*-*": 6279,
      "(\"#++\"$%": 6280,
      "\"&\"\"\"\"$2*\"&A*": 6281,
      "!$)-*(.$!!!$(*)-*!$)-*(.$!!$!*!*": 6282,
      "!\"#\"\"\"$-F$)-*$-*-*\"\"#*": 6283,
      "!!!!($!!*": 6284,
      "!!\"9\"\"\"\"\"9!1*": 6285,
      "!&!!!($": 6286,
      ")(&": 6287,
      "1*\"\"\"#": 6288,
      "-)!$-*\"#\"\"\"$%": 6289,
      "\"9\"\"\"\"\"9*\"9\"\"\"\"\"9*": 6290,
      "!!-\"#\"\"\"$!$)-*(": 6291,
      "-,$!-*.$-*,$-*,9-*": 6292,
      "!\"#\"$!*\"&\"$": 6293,
      "&*\"#\"\"\"\"\"#": 6294,
      "!&!!$)-*($": 6295,
      "!-\"#\"\"\"$!,&": 6296,
      "(!$)-*,$!!#!!!!!#*": 6297,
      "-)!$-*!(!$)-*": 6298,
      "\"1+\"0": 6299,
      "\"\"$!*\"\"#": 6300,
      "!1!!!!!1*\"\"": 6301,
      "\"1\"$%\"9\"\"\"\"\"9*": 6302,
      ":!!:*": 6303,
      "!!$!*!\"#\"\"\"$": 6304,
      "+&+\"\"$": 6305,
      "\"$%\"9\"\"\"\"$": 6306,
      "!+#++\"$%": 6307,
      "!(&!!-": 6308,
      "+\"1&*\"#": 6309,
      "\"1\"\"\"$2*\"\"1*\"\"": 6310,
      "!!,#-!$)-*,$!*!$)-*": 6311,
      "2\"#\"\"\"\"$": 6312,
      "!!!($!*!": 6313,
      "-)!$(.$!\"#\"\"\"\"\"#*": 6314,
      ",1-!$)-*": 6315,
      "!\"#\"\"\"\"\"#A*": 6316,
      "!!!$)-*(!": 6317,
      "!!#)(($": 6318,
      "!4!$)(4(": 6319,
      "\";\"\"\"$2*\"\"": 6320,
      "-!$A*A*": 6321,
      "!$)-*.#": 6322,
      "!-\"1\"\"\"\"\"1*": 6323,
      "!!-!1*": 6324,
      "!!$!*($!*": 6325,
      "\"1\"+\"9\"\"\"\"\"9": 6326,
      "!.$-*!!$)-*-": 6327,
      "/$(*$)-*)-": 6328,
      "!&!$": 6329,
      "\"$!*+#%": 6330,
      "\"0\"#&": 6331,
      "-)!#-!$": 6332,
      "+&*\"\"#*": 6333,
      "-!*\"$-!*\"#*": 6334,
      "!!!($!!*": 6335,
      "(!$)-*!(!$)-*.$(*": 6336,
      "!(#!$)-*4!$)!4": 6337,
      "\"1\"\"#&": 6338,
      "!-\"#+\"$(": 6339,
      "\"#\"\"\"\"\"#/": 6340,
      "!-\"#\"\"\"$E$)-*B*\"\"#": 6341,
      "\"$%\"&\"\"": 6342,
      ",$-*.&": 6343,
      "!!!!!!!!!!!!!": 6344,
      "+\"&1*\"#": 6345,
      "!(&!": 6346,
      "!$!*$!*!*\"#-": 6347,
      "\"&\"'\"$+&*": 6348,
      "\"#\"\"&\"\"$2*\"\"": 6349,
      "\"1\"$)-*0\"$(*+\"1&*": 6350,
      "\"=#": 6351,
      "!!#!($!$)-*": 6352,
      "!$)-*-&*": 6353,
      "-)\"#\"\"$%\"&\"\"\"\"\"&*": 6354,
      "!\"#\"\"\"\"$!$A*$A*A*\"#": 6355,
      "!*\"\"#*": 6356,
      "!&$!!($": 6357,
      "\"1\"\"\"$!*71*": 6358,
      ":*\"\"\"9": 6359,
      "!$)-*(.$!!$(*)-*!$)-*(.$!!$!*!*": 6360,
      "!!!!,&": 6361,
      "\"&\"\"\"$-!$)-*": 6362,
      "!$!*!!*": 6363,
      "\"#\"\"$-!*\"$-!*\"$-!*": 6364,
      ",#(!$!*)-": 6365,
      "\"&\"#!$)-*\"#\"\"\"\"\"#!&)-": 6366,
      "!-\"#\"\"$4!)(4(!$)-*": 6367,
      "\"&\"\"#%": 6368,
      "\"&\"\"\"\"$2*\"&*\"#": 6369,
      "\"#\"\"\"$(&!!($!": 6370,
      "!!$!*-!$!*": 6371,
      "!&)/*\"\"#": 6372,
      "\"#\"\"$2*\"\"$2*\"#*": 6373,
      "!81:": 6374,
      "!\"#\"\"$-*\"\"$!*\"#!,$(*": 6375,
      ">-)!-": 6376,
      "7\"&\"$": 6377,
      "!&)!$!*": 6378,
      "\"&+\"#": 6379,
      ",$!*(!$)-*": 6380,
      "!(!$)-*\"#\"\"$": 6381,
      "\"9\"\"\"\"\"9*!1*": 6382,
      "!!+#+\"$": 6383,
      "!-\"#\"\"\"$%\"&\"\"$%": 6384,
      "'\"1\"&": 6385,
      ".$A*": 6386,
      "!!-1*": 6387,
      "-)!$!2*": 6388,
      "+&+\"+": 6389,
      "!-\"#\"\"$!": 6390,
      "!)!!+#\"$": 6391,
      "!!-!$)-*!#)": 6392,
      "\"1\"\"\"\"\"1*\"\"&*\"#": 6393,
      "+$.&-,$!-": 6394,
      "\"&\"+\"+\"&*": 6395,
      "+\"$!$(*)-*": 6396,
      "\"1\"\"\"\"\"1*\"\"#*": 6397,
      "!!$!*+#\"+": 6398,
      "\":;*": 6399,
      "-)!$(\"#\"\"\"$2*\"\"#*": 6400,
      "!($!*!!!(!$)-*": 6401,
      "\"1\"\"\"$!*\"$!*\"1*": 6402,
      "(!$)-*,$!!!$(*)-*(!$)-*,$!!!$(*)-*": 6403,
      "!!,#-!$)-*,$!*.$-,&!8$!*$-!*.$-*,$!*": 6404,
      "-.1-89$!*!!.#8&1--9": 6405,
      "7\"1)-*": 6406,
      "!!\"&\"\"\"\"\"&*!!#": 6407,
      "!$)-*(\"&\"\"\"\"\"&#": 6408,
      "!!(1!!!!!1*": 6409,
      "\"1\"\"\"$!": 6410,
      "!\"#\"\"\"\"\"#!$)-*(": 6411,
      "\"&\"\"\"$-!$!*!*": 6412,
      "-)/$)-*$(\"#\"\"\"$": 6413,
      "4!$)!#": 6414,
      "\"$%\"&\"\"\"\"\"&*\"#": 6415,
      "\"1\"$(*+\"+\"1&*": 6416,
      "-)!$(!$": 6417,
      "!+&\"$)-*": 6418,
      "\"&\"\"\"$3*\"\"&*!!#": 6419,
      "!$)-*\"#\"\"\"\"\"#%&": 6420,
      "\"&\"\"$!1!!1*": 6421,
      "6:$!!*!)!!(;!!691.;:*!&*!#": 6422,
      ":!81:": 6423,
      "!(1!!!!1*": 6424,
      "\"9\"$%": 6425,
      ".$-*!,1-!81$-!$!*)-*,&": 6426,
      "!-!$)-*\"#\"\"\"$(!$)-*": 6427,
      "!-\"#\"\"$4!)!4!$)-*-": 6428,
      "+&*7#": 6429,
      "!\"&\"\"\"\"\"&A*": 6430,
      "!!619!*": 6431,
      "\"&\"\"\"+\"&-": 6432,
      "+\"\"$!$)-*(": 6433,
      "\"&\"\"\"\"\"&(": 6434,
      "-)!$\"#\"+": 6435,
      "!!!!!!!!!!!*": 6436,
      "!)!!$!*$!*-": 6437,
      "\"9\"\"\"$A*\"$A*": 6438,
      "\"#\"\"\"$($!*!*": 6439,
      "\"\"\"+\"#&*": 6440,
      "\"#'\"$%": 6441,
      "-)/$)-*$\"#\"\"\"\"\"#*": 6442,
      "!!(1!!!$": 6443,
      ",;-.;": 6444,
      "!)!#!$)-*8&1": 6445,
      "(!\"#\"\"\"\"\"#": 6446,
      "@*\"\"#*": 6447,
      "!!!!($!*": 6448,
      "\"9+\"$%": 6449,
      "!!-!.9!*": 6450,
      "/$)-*$)-*!$!*!*": 6451,
      "+1+\"\"$": 6452,
      "\"&%#": 6453,
      "\"90\"\"\"9": 6454,
      "4\"$)!5": 6455,
      "!$)-*,$!*,&": 6456,
      "(4!$)(5": 6457,
      "\"$!(!$)-*": 6458,
      "!-!!!(": 6459,
      "\"\"&1*\"#": 6460,
      "!\"#\"\"$3*\"\"": 6461,
      "*(#!$)-*": 6462,
      ">-)!$-*!$-*!$-*!$)-*-": 6463,
      "61$!!": 6464,
      "\"1+\"++1": 6465,
      "+&\"$/!!$)-*(": 6466,
      "\"&\"\"\"$2*\"$2*\"&*\"\"#": 6467,
      "\"9\"\"$-*\"\"$-*": 6468,
      "\"$2*\"\"": 6469,
      "\"#\"\"+\"$": 6470,
      "\"1\"\"0": 6471,
      "-)!#!!!$": 6472,
      "!!(#!!": 6473,
      "!(#!!($/$)-*$)-*": 6474,
      "!$)-*(.$!-*!$)-*(.$!\"#\"\"\"$-*\"\"#*": 6475,
      "F$)-*$-!,#-.$": 6476,
      "$!!*$!!*": 6477,
      "\"7\"&\"#": 6478,
      "(!$)-*.$!!!(!$)(*(*": 6479,
      "\"&\"\"\"1\"\"\"\"\"1\"&*\"\"#": 6480,
      "\"&\"\"\"$(1!!-!!1*": 6481,
      "\"&\"\"\"'&*+#": 6482,
      "!$)-*(,#\"&\"\"\"\"\"&": 6483,
      "\"+&!*\"\"#!$)-*(": 6484,
      "'\"1": 6485,
      "\"&\"\"+\"$%": 6486,
      "!$)-*-*!!#": 6487,
      "\"&\"+\"\"$%": 6488,
      "\"&+\"$(!$)-*": 6489,
      "-!*\"$-!*\"\"#": 6490,
      "!!($!*!!#*": 6491,
      "!\"#\"\"$!*\"$(!$)-*": 6492,
      "!!!$!*!!1*": 6493,
      "\"&+\"\"$A*": 6494,
      "4!)!&5/": 6495,
      ",#!!,&.1!!,9": 6496,
      "\"#\"\"\"&\"$4!)!4\"1\"\"\"\"+1*+0\"&\"#": 6497,
      "!8": 6498,
      "\"&++1": 6499,
      "!-\"#\"\"\"$!&)!$": 6500,
      "!$)-*-,$!*": 6501,
      "!$!*$!*-&": 6502,
      "\"&\"++$%": 6503,
      "\"$2*\"&*\"\"#": 6504,
      "+$!!*": 6505,
      "\"+#*(": 6506,
      "\"&\"\"$2*\"\"\"#&*": 6507,
      "\"&\"$)-*+#%": 6508,
      "\"#\"\"\"$%\"&\"+1": 6509,
      "\"1\"\"\"$!$)-*-*\"\"1": 6510,
      "\"\"%1": 6511,
      "!(.#": 6512,
      "!\"#\"\"\"$!$": 6513,
      "\"&+\"$2*": 6514,
      "!$)-*(!\"1\"\"\"\"\"1*": 6515,
      "\"1\"\"\"$2*\"\"1*!!&*\"\"#": 6516,
      "!!!!!!!*": 6517,
      "(!$)-*!(!$)-*,$!-*": 6518,
      "4()!$5(*(": 6519,
      "\"9\"\"\"\"+9*!!1*": 6520,
      "(.$!*": 6521,
      "-,;": 6522,
      "9!!($": 6523,
      "\"&\"\"\"\"\"&\"#-": 6524,
      "-)!$(\"#\"\"\"$A*\"\"#*": 6525,
      "!(!$)-*,#": 6526,
      "!)!!#": 6527,
      "\"&\"\"\"$%\"1++": 6528,
      "!!$-*!-*": 6529,
      "(!$)-*.$(*!!!$)-*-*": 6530,
      "\"&\"\"\"$!$)-*-*\"\"&": 6531,
      "!!!!($!$)-*": 6532,
      "!-\"&\"\"\"\"\"&*": 6533,
      "\"++#%": 6534,
      "!!$!*(#!!!$": 6535,
      "\"$)-*7#": 6536,
      ",$-*,&-*": 6537,
      "-)!$-*!$": 6538,
      "\"#\"\"\"$%\"&\"\"\"\"\"&*": 6539,
      "\"#\"\"\"$-!!!!": 6540,
      "!.$-*.$-*": 6541,
      "(!$)-*.$(*!\"#\"\"\"\"\"#*": 6542,
      "!$)-*($!*.$": 6543,
      "$A*$A*$A*$A*A": 6544,
      "!$)-*(!!\"#\"\"\"\"\"#": 6545,
      "++$%\"&\"\"\"$2*\"\"&2*": 6546,
      "(!$)-*.#!!!(#!$)-*,$!!!!(*": 6547,
      "!$)-*(!1)-*": 6548,
      "!-!#)!!$)-*": 6549,
      ",$!!$)-*-*": 6550,
      "\"\"$-*\"\"": 6551,
      "\"1++\"$!*": 6552,
      "!.#(": 6553,
      "!!6&$!$)-*(": 6554,
      "\"1+\"$-*": 6555,
      "!!.&#": 6556,
      "\"&\"\"\"$2*\"\"&*!!#*": 6557,
      "!-\"#\"\"$-*\"&\"$)-*": 6558,
      "!!\"&\"\"\"\"\"&*\"\"#": 6559,
      "\"#\"\"\"$!D(*": 6560,
      "\"9\":\"$": 6561,
      "!!$!*)-*": 6562,
      "\"#\"\"$!$A*$A*A*": 6563,
      "+&\"\"\"$": 6564,
      ",$-*.&-": 6565,
      "(&!!(": 6566,
      "&*\"#\"'": 6567,
      "!(!$)-*\"#\"$%\"&\"\"\"$A*\"\"&*": 6568,
      "-)!#!!&$": 6569,
      "!\"#\"\"$/$)-*$)-*(": 6570,
      ")(4-": 6571,
      "+1*!!&*\"\"#": 6572,
      "\"&\"$-*\"1\"$": 6573,
      "\"1+\"9\"\"\"\"\"9+1": 6574,
      "(\"#\"\"\"\"$%": 6575,
      "\"#\"\"=$!": 6576,
      "!!!!!(#": 6577,
      "\"1\"\"+\"$": 6578,
      "\"&\"$2*\"+": 6579,
      "E$)-*B*(": 6580,
      "\"$-!*\"&*\"\"\"#-": 6581,
      "\"#+\"$(&!!-!!&*": 6582,
      "\"1\"+\"$(*": 6583,
      "\"&\"$!*+$!*": 6584,
      "(!$)-*,$!!!(!$)(*(*(!$)-*,$!-*": 6585,
      "\"1\"\"\"\"\"1*\"\"\"&": 6586,
      "\":0\"\"\":\"9*": 6587,
      "+&+++\"&": 6588,
      "!$2*$2*2*": 6589,
      "\"&\"\"1\"$\"\"&A*\"$)-*\"$!$)-*-*\"+1": 6590,
      "!8&$": 6591,
      "!!8#$": 6592,
      "!$)-*(!!$": 6593,
      "!!#!!$": 6594,
      "!!-.#": 6595,
      "++$!": 6596,
      "!!-!$)-*!#$": 6597,
      "8&$!": 6598,
      "\"&\"\"\"$%\"1\"\"\"\"$": 6599,
      "!)!69$!*": 6600,
      "+\"\"#%": 6601,
      "\"&\"$!*\"\"": 6602,
      "\"1*\"\"\"#&": 6603,
      "!-\"#\"\"\"$-!*\"$%": 6604,
      "+++\"#!$": 6605,
      "!!!-\"#\"\"\"$": 6606,
      "!#!!$)-*($": 6607,
      ",#!*": 6608,
      "(#!!!!!#*": 6609,
      ".1!!": 6610,
      "!,$(/$)-*$)-*": 6611,
      "\"&\"\"\"$%+1\"+": 6612,
      "89$-*": 6613,
      "=&\"\"\"$": 6614,
      "+\"9\"1*": 6615,
      "$!*!!,$-*!$!*$!*.:!!691!*.#&": 6616,
      "\"&\"\"\"$!$)(*(*\"\"&*": 6617,
      "!6#&!!.1\"9\"\"\"$-*\"\"9": 6618,
      "!!!!($!": 6619,
      "\"+$%": 6620,
      "\"9\":\"\"\"$-*": 6621,
      "!!$!*!!$!*": 6622,
      "\"#+\"&\"\"$%": 6623,
      "\"#\"\"\"\"$(/$)-*$)-*": 6624,
      "!!&$-*": 6625,
      "!(#!!$": 6626,
      "!\"#\"\"\"&+\"$%": 6627,
      "+\"&0": 6628,
      "-)!#($": 6629,
      "!,#-.$+&\"+\"1\"$": 6630,
      "!!,$!-*": 6631,
      "\"1\"\"$A*\"\"\"1A*": 6632,
      "\"1\"$-*\"\"\"\"1": 6633,
      "\"9\":\"\"\"$-*\"9": 6634,
      "(#!!($!*!!#": 6635,
      "*\"\"&\"#": 6636,
      "!!$)-*-!!$)-*": 6637,
      "(!$)-*,$!\"&\"0\"+&*": 6638,
      "\"\"$-!*\"#-": 6639,
      "\"1*\"\"&\"#": 6640,
      "!-!$)-*(\"#+": 6641,
      "!!($!!*!!>": 6642,
      ">Bs$B*$B*B": 6643,
      "\"#4": 6644,
      "4!)!4\"9\"\"\"\"\"9*": 6645,
      "!\"#\"\"\"\"$A*\"#": 6646,
      "-,#,$-*,$-*": 6647,
      "\"1!&)-*": 6648,
      "!-\"#+\"\"$": 6649,
      "\"&\"\"\"\"\"&*\"\"$%": 6650,
      "\"\"\"\"1!*": 6651,
      "4()!&": 6652,
      "!!-!$)-*.#": 6653,
      "!!($!!*!!!(": 6654,
      "!(1!$)-*": 6655,
      "8$-*$!$)-*-!*,$-!$!*)-*": 6656,
      "\"N": 6657,
      "!!!!$!!!*": 6658,
      "!/&": 6659,
      "!\"#\"\"$!$A*$A*A*\"\"$!$A*$A*A*": 6660,
      "\"\"1A*": 6661,
      "!,#!!!!": 6662,
      "\"&\"\"1\"$(": 6663,
      ")!#!": 6664,
      "/$!*$)-*)-*\"#": 6665,
      "(!#&": 6666,
      "!!(#!$)-*\"&\"\"\"\"1": 6667,
      "\"$/!!$)-*": 6668,
      "\"&\"\"\"$2*\"$2*\"&*!!#": 6669,
      "F$)-*$B*-!!": 6670,
      "!!$!*\"#\"\"\"\"$!$!*!*\"#": 6671,
      "|$A*$A*$A*$A*A": 6672,
      "!1!!!&": 6673,
      "!\"#\"\"\"+&": 6674,
      "!\"#\"\"$(&": 6675,
      "$!!!$)-*(": 6676,
      "\"+\"#(": 6677,
      "!\"&\"\"\"$!$)-*(": 6678,
      "(!$)-*,$!*(!$)-*.$": 6679,
      "\"&\"$%\"1\"\"\"$2*\"\"1*": 6680,
      "!+#\"$)-*+$": 6681,
      "!!!!+#\"$)-*": 6682,
      "!4!)!4!": 6683,
      "4E$B*": 6684,
      ")-*.": 6685,
      "\"#\"\"\"\"\"#*(#!!($": 6686,
      "-)!$!!!": 6687,
      "\"\"\"\"\"9:*": 6688,
      "\"1\"\"\"$!$(*)-*": 6689,
      "A*\"\"&*": 6690,
      "!$)-*-*\"\"$": 6691,
      "\"&\"\"$!$)-*": 6692,
      "!-!$)-*\"#\"$!*": 6693,
      "!,$!": 6694,
      "+\"#)-": 6695,
      "!$)-*(&!!($!$)-*": 6696,
      "\"#-&": 6697,
      "!\"#\"+\"$(": 6698,
      "\"&\"0\"+&*\"\"#": 6699,
      "!!($!*!!:*": 6700,
      "\":09*": 6701,
      "!!+#\"\"+\"#": 6702,
      "!19!!:!!$!!$!:*!1*!9*": 6703,
      "\":\"\"\"\"$A*\":*": 6704,
      "$)-*\"&\"#": 6705,
      "\"++1": 6706,
      "!!$!*\"#\"\"\"$(!$)-*": 6707,
      "\"1\"\"\"$/$!*$)-*)-*\"\"1*": 6708,
      "\"&+\"1+$": 6709,
      "\"&\"\"\"\"$(!$)-*(": 6710,
      "!\"#\"\"$2*": 6711,
      "\"1\"\"$(!$)-*(": 6712,
      "!$(*)-*(!$)-*,$!\"&\"0\"1\"\"\"\"\"&1*": 6713,
      "\"1\"+0": 6714,
      "81#": 6715,
      "!$)-*(#!!!,#!$)-*-": 6716,
      "!\"#+7\"$%": 6717,
      ">2>2>2": 6718,
      "-.C": 6719,
      "\"1\"\"+\"9\"\"$2*\"\"\"19*": 6720,
      "$!!$)-*-*": 6721,
      "(!$)/*": 6722,
      "\"&\"\"\"\"\"&\"\"&": 6723,
      "!$!*/": 6724,
      "!($!!!!": 6725,
      ".1!!!(1": 6726,
      "+\"$(!!": 6727,
      "!\"#\"\"$-!": 6728,
      "\"10&*!!#": 6729,
      "/#$)-*)-*": 6730,
      "\"+&*+#": 6731,
      "!+#\"\"$!$)-*(": 6732,
      "+&+\"$!$A*$A*A*\"\"&": 6733,
      "\"1\"0\"+1*": 6734,
      "!(&!$)-*\"1\"\"\"\"\"1": 6735,
      "\"&-*\"#": 6736,
      "\"#\"\"\"$A*\"$2*\"#": 6737,
      "\"1\"\"\"90+\"\"9": 6738,
      "!(.$!*!$)-*(,$": 6739,
      "\"1\"\"$2*\"\"$2*\"1*": 6740,
      "!8#": 6741,
      "\"\"\"$)-*0": 6742,
      "\"$E$)-*B*\"\"#": 6743,
      "\"&(!$)-*": 6744,
      "+#+\"$%": 6745,
      "!!-.&": 6746,
      "-!,$-*,$-*": 6747,
      "!-\"#\"\"\"$4!)!5": 6748,
      "!$)-*-*\"\"\"1": 6749,
      "\"$)-*0&*\"\"#": 6750,
      "+&*\"$!*\"#": 6751,
      "!!!$)-*(1": 6752,
      ".$-.&": 6753,
      "\"1\"\"\"$%\"9\"\"\"\"\"9*": 6754,
      "!!!+#\"\"$": 6755,
      "!!!!(!!!!(": 6756,
      "!!($!!$)-*(!!($!!$)-*(": 6757,
      "\"#\"\"\"\"$3*\"#*": 6758,
      "+\"$(&!!-!!&*+#": 6759,
      ";!!-!!": 6760,
      "+&*\"\"": 6761,
      "\"&\"\"\"\"\"&*\"&\"\"\"\"\"&*": 6762,
      "!(!$)-*!#": 6763,
      "!+#\"$(*": 6764,
      "!+#\"$(&": 6765,
      "!!!#!&": 6766,
      "\"&\"\"17": 6767,
      "!-\"#\"\"&\"\"$": 6768,
      "!)!#!": 6769,
      "F$)-*$-*-F$)-*$-*": 6770,
      "4!#)(4(": 6771,
      "\"&\"\"\"\"+&*+#": 6772,
      "!\"#\"\"\"$-!!$)-*(": 6773,
      ">X>X": 6774,
      "\"1\"$-*\"\"$-*": 6775,
      "\"1\"\"$-!*\"\"$-!*": 6776,
      "\"&\"\"\"$/$(*$)-*)-*\"\"&*\"\"#": 6777,
      "\"#\"\"\"$(/$!*$)-*)-*\"$A*\"#": 6778,
      "\"&\"\"\"1": 6779,
      "!&!-": 6780,
      "$!1*!&": 6781,
      "\"#+++$%": 6782,
      "!!&*7#": 6783,
      ".9!!!(9": 6784,
      "!-\"#\"\"\"\"$!(&": 6785,
      "!\"#\"\"$!*\"$%": 6786,
      ".$-!$!*)-*,$-!$!*)-*": 6787,
      "!*\"\"\"#-": 6788,
      "!\"#7\"$%\"&\"\"\"\"\"&*+\"#": 6789,
      "!$)-*(.$!!!(!$)(*(*!$)-*(.$!*!$)-*(.$!!!!(*!$)-*(.$!!$!*!*!$(*)-*!$!*!*!$!*!": 6790,
      "!!!!!!!!4!)!5!!!!!!!!$)-*": 6791,
      "4!$-*)!#5!$!*)(": 6792,
      "0\"&)-*": 6793,
      "\"1\"\"\"\"\"&1*\"\"": 6794,
      "\"\"$2*\"\"": 6795,
      "!!&*++#": 6796,
      "-)!#!/!$": 6797,
      "(\"#+7": 6798,
      "/$)-*$)-*(#!!!$": 6799,
      "(!,$-*": 6800,
      "!$)-*(!&)-*": 6801,
      "!!(!!:*": 6802,
      "!1!!($!$)-*": 6803,
      "\"#\"+\"\"\"#": 6804,
      "!$)-*(&!!!!$": 6805,
      "6#$!*!": 6806,
      "!!#$\"&\"\"\"\"\"&*": 6807,
      "!$\"1\"\"\"\"\"1*\"1\"\"\"\"\"1*": 6808,
      "\"&\"$!D(*\"+": 6809,
      "\"$-*\"\"#-": 6810,
      "\"#\"\"'\"#*": 6811,
      "!!8$!*$": 6812,
      "!-\"#\"\"\"$4!)(4": 6813,
      "!!!$(9": 6814,
      ",$-*.$!-*": 6815,
      "!!+#\"$%": 6816,
      "!!!-9*": 6817,
      "\"#+\"&\"\"\"\"\"&'#*": 6818,
      ")!!$)-*-!": 6819,
      ",$-*,$-*!-*": 6820,
      "+\"1\"\"\"\"\"1\"&)-*\"\"#": 6821,
      ".#!!.&-": 6822,
      "\"&\"\"\"$!$!*!*\"\"&*": 6823,
      "(!$)-*,#!!!(#!$)-*,$": 6824,
      "!+#\"\"$(!$)-*\"&\"\"$(!$)-*": 6825,
      "!!)!&": 6826,
      "!$)-*(!#$": 6827,
      "/$)-*$)-*!": 6828,
      ".$!*.#-": 6829,
      "(!$)-*($!!$)-*(": 6830,
      "\"#\"\"\"\"&\"+": 6831,
      "+$%\"1\"\"\"\"\"1*\"\"&": 6832,
      "\"&*\"#!": 6833,
      "(!$)-*.$(*!\"&\"\"\"$-*\"\"&*": 6834,
      "(!$)-*,$!!$)-*-*(!$)-*,$!!$!*!*": 6835,
      "\"&+\"+$.1": 6836,
      "!$)-*(!!$(*)-*(!$)-*,$!!$(*)-*": 6837,
      "\"\"$!$A*$A*A*": 6838,
      "\"$!*\"&*\"\"#": 6839,
      "!)!!-\"#\"\"\"$": 6840,
      "!-\"#\"\"\"$%\"&\"\"$)-*": 6841,
      "!\"&\"\"\"\"\"&!(#": 6842,
      "!!6&1!*!#$!*!": 6843,
      "(D!\"#\"$(*": 6844,
      "(!$)-*\"#\"\"\"7#": 6845,
      "!&\"1\"\"\"\"\"1": 6846,
      "2*+$%\"&\"\"\"\"\"&*+#": 6847,
      "!1)!": 6848,
      "(#!!!!#*": 6849,
      "+#*!$)-*-": 6850,
      "(\"#+\"\"&": 6851,
      "!!#)!$-*": 6852,
      "\"&\"7\"$%": 6853,
      "\"1\"\"$!$A*$A*A*\"\"$!$A*$A*A*\"1*": 6854,
      "!(1!!!!!1*": 6855,
      "!&!!&": 6856,
      "\"\"$-!*\"$-!*": 6857,
      "(!$)-*,$-*": 6858,
      "\"1\"$2*": 6859,
      "+1\"&": 6860,
      "-)!#!!!(#": 6861,
      "!\"#\"\"\"$%\"&\"\"$": 6862,
      "\"1\"\"\"$-!!$)-*(": 6863,
      "\"&\"\"\"7&*+#": 6864,
      "\"&\"\"+\"\"&*+#": 6865,
      "!!!!1)-*": 6866,
      "\"&\"++1%": 6867,
      "!!)!$!*!": 6868,
      "!$^*": 6869,
      "\"#-!!": 6870,
      "\"&\"\"+\"$": 6871,
      "\"#\"\"\"$-!*\"$-!*\"#": 6872,
      "&*\"$!*\"#": 6873,
      "!!-9*": 6874,
      "!!$!*($!": 6875,
      "!!$)-*(\"#\"\"\"\"$%": 6876,
      "!\"#\"\"\"$!": 6877,
      "\"&\"\"\"\"$(/$)-*$)-*": 6878,
      "!!(#!$)-*!$": 6879,
      "\"&+#!": 6880,
      ")(5(": 6881,
      ".$-/$)-*$)-*-*": 6882,
      "!6:": 6883,
      "+#\"\"$!$(*)-*\"$(": 6884,
      "\"\"\"$(*+": 6885,
      "\"#+\"$%\"&\"\"\"\"\"&*\"'#": 6886,
      "\"9\"\"$!*\"\"\"9": 6887,
      "(!&)-*": 6888,
      "-/$)-*$)-*": 6889,
      "!-!\"#\"\"\"\"\"#*": 6890,
      "!!#/": 6891,
      "!(#!$)-*($": 6892,
      "!($!!$)-*-*": 6893,
      "!\"#\"\"$!-": 6894,
      "-!$\"#\"\"\"\"\"#*": 6895,
      "4!$)!5!)!&": 6896,
      "!#)!!&": 6897,
      "\"#\"\"&\"$\"\"#-*": 6898,
      "&*\"\"&": 6899,
      "!!(!#)-*": 6900,
      "\"&\"$+#": 6901,
      "A*\"\"9": 6902,
      "-!$)-*!$": 6903,
      "\"$)-*0#*": 6904,
      "\"&7\"$%": 6905,
      "!)!$4!*": 6906,
      "-,$!-*.$-*,$-*,#-*": 6907,
      "\"$E$)-*B*\"#*": 6908,
      "!$(*)(!$(*)(": 6909,
      "\"1\"\"\"\"\"1*\"\"&#": 6910,
      "!\"#\"\"\"\"&+\"$%": 6911,
      "(!!$-*": 6912,
      "-\"&\"\"\"\"\"&#": 6913,
      "-6#&": 6914,
      "\"92*": 6915,
      ",$!*-1*": 6916,
      "\"$!*7&*\"\"#": 6917,
      "!(&!!!!&": 6918,
      "\"&+\"$!1!!1*": 6919,
      "\"&\"\"1\"\"\"\"\"1": 6920,
      "\"9\"\"\"$-!$A*$A*A*\"\"": 6921,
      "!$)-*.$(!$)-*-!*!$!*!*0": 6922,
      ">A|$A*$A*$A*$A*A": 6923,
      "\"#\"\"\"\"\"#>2": 6924,
      "!!!\"9\"\"\"\"\"91*": 6925,
      "!1$-*": 6926,
      "-)!$-*\"#\"\"\"$(": 6927,
      "!,$!$)-*-*": 6928,
      "!$!*)-*\"#": 6929,
      "!.$-!": 6930,
      "!$)-*(,$!)-*": 6931,
      "!,&.$": 6932,
      "!(#!$)-*!$": 6933,
      "\"&\"\"\"$(1!!!!": 6934,
      "*\"\"19*": 6935,
      "-)!$(!#!!!!#*": 6936,
      "!!-!!-!!-!!-!!-!!-!!-!!-": 6937,
      ".&!!)!&": 6938,
      "E$)-*B*\"\"$E$)-*B*": 6939,
      "!!$)-*(.$!*\"#\"\"\"$-.&!!($": 6940,
      "!.&!!,#(&": 6941,
      "!!.#-": 6942,
      "!$)-*((": 6943,
      "\"1\"\"\"\"\"1\"\"": 6944,
      "!!($/$!*$)-*)-*": 6945,
      "2*\"$!$)-*(": 6946,
      "\"1\"\"\"$\"$2*\"1*": 6947,
      "!!!,9": 6948,
      "\"\"$-!": 6949,
      "!($!*!$)-*-": 6950,
      "4()!4!)!4": 6951,
      "\"#\"\"\"$2*\"\"#*($": 6952,
      "!\"&\"\"\"\"\"&*!#": 6953,
      "\"#\"\"\"\"&\"#-": 6954,
      "!$)/*($": 6955,
      "\"$)-*+&!*": 6956,
      "\":\"\"$A*\"\"": 6957,
      "\":)-*": 6958,
      "E$)-*B*\"\"&*": 6959,
      "!#)(/$)-*$)-*": 6960,
      "\"&\"\"\"$A*\"$": 6961,
      "\"9\"\"\"\":0": 6962,
      "$!9!!9*\"1\"&": 6963,
      "-)!$-*,#": 6964,
      "!!!$)-*($!": 6965,
      ".$-,&": 6966,
      "!!!1)-*": 6967,
      "\"&\"'\"$+&*%": 6968,
      "\"$)-*+#!": 6969,
      "!!.$!*,$": 6970,
      "-)!$!/\"#+\"&\"\"\"\"\"&": 6971,
      "!4!)!5!4!)!5!4!)!5": 6972,
      "!\"#7+\"$%\"&\"\"\"\"\"&*\"#": 6973,
      "-4()!4": 6974,
      "!!$A*": 6975,
      "-!*!!#": 6976,
      "!$)-*-*.$!*-": 6977,
      "\"#\"\"\"\"$!(&": 6978,
      "!!&$!*": 6979,
      "!$)-*(&!!!!&": 6980,
      "!$(*)-*.$!*-*": 6981,
      "!!!#!!!!(#": 6982,
      "\"1\"\"\"$2*\"\"1*\"\"&*": 6983,
      "!.$-*,$!\"#\"\"\"\"\"#*": 6984,
      "!#)-*!&": 6985,
      "\"&\"\"\"1+\"\"\"\"1": 6986,
      "!!!($!!!*!$)-*": 6987,
      "\"&\"$\"#-*": 6988,
      "!$)-*(.$!!!!(!$)-*": 6989,
      "!$)-*-*\"\"1*": 6990,
      "(!$)-*.$!!!!(*": 6991,
      "!1*+&*\"#": 6992,
      "!!($!\"9\"\"\"\"\"9*!!1*": 6993,
      "!!(&!!!!&*": 6994,
      "!,$-*,$!\"#\"\"\"\"\"#*": 6995,
      "0\"$)-*\"1\"&": 6996,
      "!$)-*B*(&": 6997,
      "\"#\"\"7\"#*": 6998,
      "\"&\"1\"$+\"9\"\"\"\"\"&9*": 6999,
      "+\"\"\"$-": 7000,
      "-*\"\"&*": 7001,
      "\"&!": 7002,
      "!!!!!/": 7003,
      ".$!$)-*(": 7004,
      "\"++#": 7005,
      "!$!*(!$)-*": 7006,
      "\"&*++#": 7007,
      ".&!*": 7008,
      "4!)!4!$!*": 7009,
      "!!&!!!!&*": 7010,
      "!-\"#\"\"$2*\"\"": 7011,
      "-)!#\"&\"\"\"\"\"&%": 7012,
      "!!-!$)-*,#": 7013,
      "9*\"\"1*\"\"&*": 7014,
      "(1!$)-*": 7015,
      "!!$)-*-\"#\"\"\"$": 7016,
      "!&!!!!&*\"#": 7017,
      "!$)-*-!\"#\"\"\"\"\"#*": 7018,
      "!!!!(!!!(": 7019,
      "\"9\"\"\"$2*\"\"9*!!1*": 7020,
      "+&\"$/*": 7021,
      "'&*\"\"\"#-": 7022,
      "\"#\"\"\"&\"\"": 7023,
      "\"1\"\"\"\"\"1E$)-*B*": 7024,
      "\"\"\"$-!*": 7025,
      "\"$!*\"#*": 7026,
      "!$!*$!*!*\"\"$": 7027,
      "+\"1(": 7028,
      "-)E$B*\"#\"\"\"\"\"#": 7029,
      "!$2*$2*2": 7030,
      "A*\"$A*\"\"$A*": 7031,
      "!($!!\"1\"$0\"9\"\"\"\"\"19*8$!$)-*-!*$\"1\"\"9\"$\"\"1-!*($!*,1": 7032,
      "/!.&": 7033,
      "\"++#!": 7034,
      "!!$!*\"#\"$": 7035,
      "!!!!!!!!*": 7036,
      "!!-!$)-*,$": 7037,
      "\"$)-*01*": 7038,
      "/$!*$)-*)-*\"\"": 7039,
      "!\"#\"\"$!*\"$/$)-*$)-*(": 7040,
      "\"1\"\"\"$-!*\"\"": 7041,
      "(!$)-*!(!$)-*,$!!$!*!*": 7042,
      "!\"#\"\"$A*\"$A*\"\"#A": 7043,
      "\\#": 7044,
      "\"$!!": 7045,
      "!!#!!!($": 7046,
      "-)!$\"#\"\"$": 7047,
      "!!!)!$!*!": 7048,
      ".$-*,$": 7049,
      "!(#!!!!#*": 7050,
      "-)!$(!#!!($": 7051,
      "+&*+\"#": 7052,
      "+$!*\"1*": 7053,
      "81$A*": 7054,
      "!,$-*,$": 7055,
      "!,$-*8#$!*": 7056,
      "!-\"#\"\"\"&+\"1\"\"$2*\"\"": 7057,
      "\"&\"$-*\"\"\"$-*": 7058,
      "-)!$4!)!4\"#\"\"\"\"\"#*(": 7059,
      "\"1+\"\"\"$%": 7060,
      "\"1+\"$!*\"\"$!*": 7061,
      "\"&+\"+\"1\"&+\"+1": 7062,
      "$!-": 7063,
      "!!4!$)!5": 7064,
      "!$)-*(!1": 7065,
      "!!!!!!!-": 7066,
      "!!-!9*": 7067,
      ".#!&": 7068,
      ".&-!$)-*": 7069,
      "\"9\"\"\"\"$%": 7070,
      "4!)!4!$)-*4!)!4": 7071,
      "!($!!\"#\"\"\"\"\"#*": 7072,
      "\"&\"+$!!$)-*(": 7073,
      "!.$!D(*": 7074,
      "!$(*)-*(!#)-": 7075,
      "!,#-!$)-*": 7076,
      "\"$A*\"&*\"\"#": 7077,
      "!($!4!)!4": 7078,
      "()!$\"1\"\"\"\"\"1*": 7079,
      "$-&*": 7080,
      "-,#!($!*": 7081,
      ".$-!$)-*\"1\"\"\"\"\"1*": 7082,
      "4!$/*)(4": 7083,
      "!\"#\"\"\"\"&\"\"\"\"\"#&*": 7084,
      "!!+1": 7085,
      "!-!!$)-*(#": 7086,
      "(!$)-*,1": 7087,
      "-)!$!!!#": 7088,
      "!!$!*-*": 7089,
      "!!$(/$)-*$)-*": 7090,
      "!!!!!!!!-": 7091,
      "-)!#\"&\"$": 7092,
      "\"$)-*0\"9)-*": 7093,
      "\"#+\"$%\"&\"\"+\"\"&*": 7094,
      "!!\"#+\"&\"\"\"\"\"&": 7095,
      "(!$)-*,$!!$)-*-*(!$)-*.$": 7096,
      "\"&\"\"\"10+\"$%": 7097,
      "\"&\"\"\"10\"\"\"1": 7098,
      "Y$!*$!*!*": 7099,
      "!.#-.$-,&": 7100,
      "!!\"#\"\"\"$-": 7101,
      "!*!$)-*": 7102,
      "!$!*$!*!*\"\"": 7103,
      "!1!!!!!1": 7104,
      "!+#\"\"$!$)-*": 7105,
      "!\"#+7\"$(/$)-*$)-*": 7106,
      "\"1\"$%\"9\"+": 7107,
      "!+&\"\"+\"&*": 7108,
      "\"&\"\"\"$E$)-*B*\"\"&*!!#": 7109,
      "!!\"9\"\"\"\"\"91*": 7110,
      "!!(!!$-*": 7111,
      "\"&\"$-!*\"#-!": 7112,
      "!\"#\"\"\"$!-": 7113,
      "!\"#\"\"\"$!$)-*-*\"\"#": 7114,
      ",$!*-.$": 7115,
      "!(#!!!!$": 7116,
      ".9-": 7117,
      "\":\"\";": 7118,
      "\"$!$A*$A*A*\"&*\"\"#": 7119,
      "\"9\"\":\"\"\"\"\":": 7120,
      ">->-": 7121,
      "'\"9+1*7\"&\"#": 7122,
      ">-)!$B*!$A*$A*A": 7123,
      ")/*(": 7124,
      "-!!!(": 7125,
      "-:*": 7126,
      "0\"&": 7127,
      "9*\"\"#&": 7128,
      "4!1": 7129,
      "!!!4!$)!5": 7130,
      ",&!.&": 7131,
      "\"&\"++$%\"1\"\"\"\"\"1*": 7132,
      "\"&+\"$%\"1\"\"+\"\"1*": 7133,
      "!!6&$!*.#": 7134,
      "!!!!$!*$!*-*": 7135,
      "!\"&\"\"\"1\"\"\"\"\"1\"&*": 7136,
      "(\"1\"\"\"\"\"1": 7137,
      "-!$(*)!$!D(*": 7138,
      "!!!-\"#\"\"\"$%": 7139,
      "!$\"#\"\"\"$2*\"\"#*": 7140,
      "!$)-*(!!-": 7141,
      "!!($!$)-*-!$!*$!*!*": 7142,
      ",&!($": 7143,
      "\"$2*\"&*\"#": 7144,
      "\"&\"\"$%\"1\"\"\"$2*\"\"1*": 7145,
      "\"&\"\"\"\"$A*\"&A*": 7146,
      "(.$!\"#\"\"\"\"\"#*": 7147,
      "\"1++0+1*": 7148,
      "--1": 7149,
      "!E$!*$": 7150,
      "4!$)!5!)!&4": 7151,
      "!-!!($!$)-*": 7152,
      "2*\"$(": 7153,
      "!!$!*!($!$)-*": 7154,
      "!D!!(!$)-*": 7155,
      "!-!$)-*\"#\"\"&": 7156,
      "\"$-*\"&\"\"\"\"\"&#": 7157,
      "/$)-*$)-*($": 7158,
      "\"1\"\"\"$A*\"\"1*\"\"&*": 7159,
      "+\"\"+#": 7160,
      "F$)-*$-*-F$)-*$-*-*": 7161,
      "@*\"#": 7162,
      "!!6&$!$)-*-*!!61$!*,$!!.98:": 7163,
      "!$)-*!!!": 7164,
      "\"1*\"\"$": 7165,
      "\"#\"\"\"\"\"&#": 7166,
      "!!$)-*\"#\"\"\"$": 7167,
      "(&!*": 7168,
      ".$-*,$!\"#\"\"\"\"\"#*": 7169,
      "\"'&*!!#": 7170,
      "!$!*!*!$(*)-": 7171,
      "!$)-*(&!!!!!&*": 7172,
      "!$)-*(,$!$)-*(.$!*": 7173,
      "+\"$!*+#": 7174,
      "!!$)-*(.$!-*": 7175,
      "!!$A*$A*A": 7176,
      "0\"$4!)!&5!$)-*(": 7177,
      "4!$)(4-*(": 7178,
      "!-!#$": 7179,
      "!!-!&*": 7180,
      "\"&+\"+#": 7181,
      ",&!.1": 7182,
      "!\"#\"$2*": 7183,
      "!!&*\"$A*\"#": 7184,
      "!(#!!&": 7185,
      "!\"#\"+\"+#": 7186,
      "!$)-*,$!\"#\"\"\"\"\"#*": 7187,
      "!!,$!*.$": 7188,
      "\"&%\"&\"\"\"\"\"&*\"\"#": 7189,
      "\"1\"\"\"9\"$\"1*-!-9*\"\"": 7190,
      "\"$/!*": 7191,
      "!$)-*(!!$)-*(.$!*": 7192,
      "4!$)!$4-*": 7193,
      "!$)-*!+&\"\"\"$(*+\"&)-*": 7194,
      "\"&1*\"\"$-!*\"#-!": 7195,
      "!!$!*(!$)-*(": 7196,
      "!\"#\"\"\"$(&!$)-*": 7197,
      "\"&\"\"$(!": 7198,
      "\"$-*\"9": 7199,
      "(!$)-*.$!$!*!*": 7200,
      "!$(*)-*.$!*-": 7201,
      "\"&\"\"#2": 7202,
      "()!$(*(*": 7203,
      "$!D(*\"$(": 7204,
      "4!)!$5!*!!4!)!$5!*": 7205,
      "!//!.1": 7206,
      "\"1\"\"\"$!$)-*(!9": 7207,
      "\"#\"\"$A*\"\"$A*\"#": 7208,
      "\"&\"\"\"$(1!!-!!1*\"\"&*": 7209,
      "!.$!-*(#!.$!*,$": 7210,
      "!)!4": 7211,
      "()!1": 7212,
      "!!-.$": 7213,
      "\"$)-*+#%\"#\"\"\"\"\"#": 7214,
      "!-\"#\"\"\"$!&$": 7215,
      "+$!*\"&\"#": 7216,
      "!!(&!!-!!&*\"\"#": 7217,
      "!.&!#": 7218,
      "\":\"\"\"$%": 7219,
      "\"&\"\"\"\"$!D(*\"&*": 7220,
      "!!$)-*-8#&!-.#": 7221,
      "4!$)!&": 7222,
      "6$": 7223,
      "\"#\"\"\"$!$!*!*\"\"#": 7224,
      "!#!!!($!$)-*": 7225,
      "+\"$-*\"$-*": 7226,
      ".$!*-!$)-*": 7227,
      "(#*": 7228,
      "!,#-!": 7229,
      "+$!!": 7230,
      "\"&)-*\"\"#-!": 7231,
      "7&*+#": 7232,
      "!!,#-!$)-*,$!*!$)-*,$!*.$-.&-,$!*!,$($!*!*,&-*": 7233,
      "\"#\"\"$-!*\"$-!*\"$-!*\"#*": 7234,
      "$!!!": 7235,
      "9\"$": 7236,
      "!!E#": 7237,
      "!!!!!!/": 7238,
      "-)!$\"#\"\"\"$%": 7239,
      ",#!$)-*(": 7240,
      "*(1": 7241,
      "!($!$!*)-*": 7242,
      "\"$-!*+#": 7243,
      "-)!#($!": 7244,
      "(!$)-*.$(!$)-*,$!!$!*!*": 7245,
      "+\"+\"&\"\"#-": 7246,
      "-)E$B*\"#\"\"\"$(": 7247,
      "-&*-#": 7248,
      "!!,$!*,$(!$)-*,$!*": 7249,
      "-,$!-*.$-*,$-*,1": 7250,
      "=&\"\"\"\"": 7251,
      "\"1\"\"\"\"9\"\"\"\"$": 7252,
      "!-\"#\"\"$-!*\"\"$($": 7253,
      "!)-": 7254,
      "(!!$)-*(": 7255,
      "!!!!,1": 7256,
      "A*\"+#": 7257,
      "(!$)-*!#!!($": 7258,
      "!!!,$!*": 7259,
      "\"&\"\"$!$)-*(1": 7260,
      "!)!!/": 7261,
      "\"#\"\"\"\"&+'": 7262,
      "!!($!!*!!*": 7263,
      "(!$)/*(4()!4": 7264,
      "!\"#\"+$!&": 7265,
      "\"9\"\"\"$%\":\"+": 7266,
      "\"&\"\"\"$-*\"\"&-*": 7267,
      "'\"&+#*": 7268,
      "*.": 7269,
      "B]": 7270,
      "!$!!-*": 7271,
      "A*\"#": 7272,
      "\"&\"\"\"$!-": 7273,
      "\"&++$!*": 7274,
      "(#&": 7275,
      "-)!$(\"#\"\"\"&\"$\"#*": 7276,
      "!$!*!*!$)-*-": 7277,
      "!+#\"$)-*7": 7278,
      "*(#!!!!$": 7279,
      "!\"&\"\"\"$!$A*$A*A*\"\"&*": 7280,
      "!/\"#+\"&\"\"\"\"\"&": 7281,
      "(!$!*)-*,$": 7282,
      "\"&\"\"\"\"\"&2*+#": 7283,
      "!$)-*(.$!!!$(*)-*!$)-*(.$!!!$(*)-*": 7284,
      "!$)-*(!!$)-*(.$!-*": 7285,
      "\"&+++0&*\"\"#": 7286,
      "\"&\"\"\"10+\"\"1": 7287,
      "\"&\"\"$!*\"\"$!*\"&*": 7288,
      "F#$)-*": 7289,
      "1)-*": 7290,
      "!$\"#\"\"\"\"\"#2*": 7291,
      "+&\"$(": 7292,
      "!,#!-": 7293,
      "!!#$!*/": 7294,
      "!-\"#\"\"\"&\"\"\"\"\"&\"#": 7295,
      "\"&7#*": 7296,
      "\"1\"\"\"$%\"9\"\"": 7297,
      "!(9!!-!!9*": 7298,
      "!!$!*,$(*": 7299,
      "\"&\"\"\"1+\"'": 7300,
      "\"&\"\"$3*\"\"\"&#": 7301,
      "\"#+\"$(*+\"&\"#+\"+&": 7302,
      ")(!$)-*": 7303,
      "/\"&\"\"\"\"\"&*": 7304,
      "!!8#&": 7305,
      "(!$)-*!($": 7306,
      ".$!*!($": 7307,
      "!!&*\"\"$-!*\"#-!": 7308,
      "!-!$)-*8#$!*": 7309,
      "-)!$-*!!(!$)-*": 7310,
      "+\"&!#": 7311,
      "\"9\"\"\"\"\"9*!!1*\"\"": 7312,
      "!!!&)": 7313,
      "!$)-*(!!$)-*(.$!\"#\"\"\"\"\"#*": 7314,
      "\"&\"\"\"$-!\"1\"\"\"\"\"1*\"\"&*": 7315,
      "-!-9*\"\"$-!*\"#-!": 7316,
      ",&!!.#!,$": 7317,
      "!!8:$!*": 7318,
      "!!!\"#\"\"\"$": 7319,
      ".$-*,#": 7320,
      "-)!$(!\"#\"\"\"$A*\"\"#*": 7321,
      "(!$)-*.$!\"#\"0\"&\"\"\"\"\"#&*": 7322,
      "!$-*!$": 7323,
      "\"#-!\"#\"\"\"\"\"#": 7324,
      "\"1\"\"\"+\"1*\"\"": 7325,
      "!!$!*!,$(!$)-*,$!\"#\"\"\"\"\"#*": 7326,
      "\"1\"\"9\"\"\"\"\"971*": 7327,
      "(D!\"#\"\"$/$)-*$)-*(": 7328,
      "!!!!\"#+\"$2*\"$": 7329,
      "(\"#+\"\"\"$(&": 7330,
      "!-4()!$4": 7331,
      "\"&\"\"\"$!D!": 7332,
      "!\"#\"\"\"$4!)!4": 7333,
      "\"#\"\"\"\"\"#*!$)-*(": 7334,
      "!!$!(!$)-*": 7335,
      "\"\"&7": 7336,
      "-)!$-*!$)-*->": 7337,
      "(/$)-*$)-*\"#\"\"$": 7338,
      ".:-*": 7339,
      "!\"#+\"$(&": 7340,
      "!$)-*(!!$)-*(.$!!$!*!*": 7341,
      "69$-*": 7342,
      "\"&+\"\"\"$(": 7343,
      "!($!\"#\"\"\"\"\"#*!$)-*": 7344,
      "+#&*": 7345,
      "$!)!": 7346,
      "-!.1": 7347,
      "!\"#\"\"\"$2*\"$2*\"#*": 7348,
      "!\"#\"\"\"&+\"$!*": 7349,
      "(D!\"#\"\"$%": 7350,
      "+\"1)-*": 7351,
      "!9!!9*\"\"": 7352,
      "!$)-*-!\"1\"\"\"\"\"1*": 7353,
      "!\"#+\"$%\"&\"\"\"\"\"&*": 7354,
      "!!&!!!-&*\"\"#": 7355,
      "!!$)-*\"#\"\"\"\"$(!$)-*": 7356,
      "!$)-*-!#": 7357,
      "!$!*$!*!$)-*(": 7358,
      "4!$)(4!": 7359,
      "\"1+\"9": 7360,
      "!($!*!!$)-*(": 7361,
      "!\"#+\"'\"#": 7362,
      "!!,$!&*(1": 7363,
      "\"&\"\"#-!!": 7364,
      "!)!#4!$)!5!)!&4": 7365,
      "'&*'#": 7366,
      "!&!!&*!#": 7367,
      "\"#++\"$/!!$)-*(": 7368,
      "\"$(*+\"9*": 7369,
      ",$-!$!*)-*.$-!$!*)-*.#-!$!*)-": 7370,
      "!.&!!,$!#*(&": 7371,
      "!$!*$!*.:!!89$!*61$!*!!": 7372,
      "!&>2": 7373,
      "+&!!": 7374,
      ".#-,$!-*.$-*,$-*,#-": 7375,
      "!!&!!-!!&*": 7376,
      "!D!!-!!-!!-": 7377,
      ")(5-": 7378,
      "\";:*": 7379,
      "!!($!*!!&*\"\"\"#": 7380,
      "!$)-*(.$!*!$)-*(.$!!!$)-*-*": 7381,
      "!$)(*(*\"\"1*": 7382,
      "++1*!!&*+#": 7383,
      "F$)-*$B*-*": 7384,
      "(!$)-*,$!\"#\"0\"&\"\"\"\"\"#&*(!$)-*,$!!!$(*)-*": 7385,
      "!8$-*$.$-!$)-*\"9\"\"\"\"\"9*": 7386,
      "'\"&#": 7387,
      "/4!#)!5": 7388,
      "2\"#\"\"\"$(": 7389,
      "!$\"1\"\"\"$2*\"\"1*": 7390,
      "\"1:*": 7391,
      "\"#\"\"\"$!$": 7392,
      "\"1\"\"\"9+": 7393,
      "\"&\"\"\"$,1": 7394,
      "\"&\"\"$-!!": 7395,
      "1*\"\"$%": 7396,
      "\"$-*\"&\"#": 7397,
      "+\"#-*": 7398,
      "!$)-*(,$!$)-*(.$!-*": 7399,
      "!!1!!-!!1*": 7400,
      ")!#-": 7401,
      "(!$)-*.$!\"&\"\"\"$-*\"\"&*": 7402,
      "!!-!$)-*\"#\"$(!$)-*": 7403,
      "!#!(": 7404,
      ",#!$)-*": 7405,
      ",#\"#\"\"\"$2*\"\"#": 7406,
      "\"$)-*\"\"$%": 7407,
      ".&#*": 7408,
      "-)!$(,$": 7409,
      "!!!!!!!!!!(": 7410,
      "\"&\"+\"$(1": 7411,
      "\"&+\"$!(": 7412,
      "+\"1&*!#": 7413,
      "+1*%": 7414,
      "\"9\"$\"&1*": 7415,
      "\"#\"\"\"$-!$A*A*\"\"#": 7416,
      "!&)(!!(&": 7417,
      "!-\"#\"\"$-!*\"\"$!$)-*(": 7418,
      "\"1+\"9\"\"\"\"\"90": 7419,
      "\"#\"\"\"\"$-\"&\"\"\"\"\"&*\"#": 7420,
      "\"#\"$(*+$": 7421,
      "!D!!-!!-!!-!!(\"#+\"$": 7422,
      "!$)-*4!#)!5": 7423,
      "\"&\"\"\"\"\"&!$)-*-*": 7424,
      "!$!*$!*!!!#": 7425,
      "\"$(1!!-!!1*": 7426,
      "!)!!\"#\"\"$": 7427,
      "-!-9*\"\"#": 7428,
[...]
